<pad>	0
<unk>	0
<s>	0
</s>	0
User:	0
Assistant:	0
<0x00>	0
<0x01>	0
<0x02>	0
<0x03>	0
<0x04>	0
<0x05>	0
<0x06>	0
<0x07>	0
<0x08>	0
<0x09>	0
<0x0A>	0
<0x0B>	0
<0x0C>	0
<0x0D>	0
<0x0E>	0
<0x0F>	0
<0x10>	0
<0x11>	0
<0x12>	0
<0x13>	0
<0x14>	0
<0x15>	0
<0x16>	0
<0x17>	0
<0x18>	0
<0x19>	0
<0x1A>	0
<0x1B>	0
<0x1C>	0
<0x1D>	0
<0x1E>	0
<0x1F>	0
<0x20>	0
<0x21>	0
<0x22>	0
<0x23>	0
<0x24>	0
<0x25>	0
<0x26>	0
<0x27>	0
<0x28>	0
<0x29>	0
<0x2A>	0
<0x2B>	0
<0x2C>	0
<0x2D>	0
<0x2E>	0
<0x2F>	0
<0x30>	0
<0x31>	0
<0x32>	0
<0x33>	0
<0x34>	0
<0x35>	0
<0x36>	0
<0x37>	0
<0x38>	0
<0x39>	0
<0x3A>	0
<0x3B>	0
<0x3C>	0
<0x3D>	0
<0x3E>	0
<0x3F>	0
<0x40>	0
<0x41>	0
<0x42>	0
<0x43>	0
<0x44>	0
<0x45>	0
<0x46>	0
<0x47>	0
<0x48>	0
<0x49>	0
<0x4A>	0
<0x4B>	0
<0x4C>	0
<0x4D>	0
<0x4E>	0
<0x4F>	0
<0x50>	0
<0x51>	0
<0x52>	0
<0x53>	0
<0x54>	0
<0x55>	0
<0x56>	0
<0x57>	0
<0x58>	0
<0x59>	0
<0x5A>	0
<0x5B>	0
<0x5C>	0
<0x5D>	0
<0x5E>	0
<0x5F>	0
<0x60>	0
<0x61>	0
<0x62>	0
<0x63>	0
<0x64>	0
<0x65>	0
<0x66>	0
<0x67>	0
<0x68>	0
<0x69>	0
<0x6A>	0
<0x6B>	0
<0x6C>	0
<0x6D>	0
<0x6E>	0
<0x6F>	0
<0x70>	0
<0x71>	0
<0x72>	0
<0x73>	0
<0x74>	0
<0x75>	0
<0x76>	0
<0x77>	0
<0x78>	0
<0x79>	0
<0x7A>	0
<0x7B>	0
<0x7C>	0
<0x7D>	0
<0x7E>	0
<0x7F>	0
<0x80>	0
<0x81>	0
<0x82>	0
<0x83>	0
<0x84>	0
<0x85>	0
<0x86>	0
<0x87>	0
<0x88>	0
<0x89>	0
<0x8A>	0
<0x8B>	0
<0x8C>	0
<0x8D>	0
<0x8E>	0
<0x8F>	0
<0x90>	0
<0x91>	0
<0x92>	0
<0x93>	0
<0x94>	0
<0x95>	0
<0x96>	0
<0x97>	0
<0x98>	0
<0x99>	0
<0x9A>	0
<0x9B>	0
<0x9C>	0
<0x9D>	0
<0x9E>	0
<0x9F>	0
<0xA0>	0
<0xA1>	0
<0xA2>	0
<0xA3>	0
<0xA4>	0
<0xA5>	0
<0xA6>	0
<0xA7>	0
<0xA8>	0
<0xA9>	0
<0xAA>	0
<0xAB>	0
<0xAC>	0
<0xAD>	0
<0xAE>	0
<0xAF>	0
<0xB0>	0
<0xB1>	0
<0xB2>	0
<0xB3>	0
<0xB4>	0
<0xB5>	0
<0xB6>	0
<0xB7>	0
<0xB8>	0
<0xB9>	0
<0xBA>	0
<0xBB>	0
<0xBC>	0
<0xBD>	0
<0xBE>	0
<0xBF>	0
<0xC0>	0
<0xC1>	0
<0xC2>	0
<0xC3>	0
<0xC4>	0
<0xC5>	0
<0xC6>	0
<0xC7>	0
<0xC8>	0
<0xC9>	0
<0xCA>	0
<0xCB>	0
<0xCC>	0
<0xCD>	0
<0xCE>	0
<0xCF>	0
<0xD0>	0
<0xD1>	0
<0xD2>	0
<0xD3>	0
<0xD4>	0
<0xD5>	0
<0xD6>	0
<0xD7>	0
<0xD8>	0
<0xD9>	0
<0xDA>	0
<0xDB>	0
<0xDC>	0
<0xDD>	0
<0xDE>	0
<0xDF>	0
<0xE0>	0
<0xE1>	0
<0xE2>	0
<0xE3>	0
<0xE4>	0
<0xE5>	0
<0xE6>	0
<0xE7>	0
<0xE8>	0
<0xE9>	0
<0xEA>	0
<0xEB>	0
<0xEC>	0
<0xED>	0
<0xEE>	0
<0xEF>	0
<0xF0>	0
<0xF1>	0
<0xF2>	0
<0xF3>	0
<0xF4>	0
<0xF5>	0
<0xF6>	0
<0xF7>	0
<0xF8>	0
<0xF9>	0
<0xFA>	0
<0xFB>	0
<0xFC>	0
<0xFD>	0
<0xFE>	0
<0xFF>	0
▁t	-0
he	-1
▁a	-2
in	-3
er	-4
on	-5
▁the	-6
re	-7
▁o	-8
an	-9
at	-10
en	-11
ed	-12
▁s	-13
or	-14
▁w	-15
is	-16
es	-17
it	-18
al	-19
ar	-20
▁of	-21
▁c	-22
nd	-23
▁in	-24
▁f	-25
▁b	-26
▁p	-27
ic	-28
as	-29
▁and	-30
ing	-31
ion	-32
ro	-33
▁to	-34
▁m	-35
le	-36
▁S	-37
▁T	-38
▁d	-39
ou	-40
▁A	-41
▁C	-42
▁h	-43
il	-44
ent	-45
▁1	-46
st	-47
▁M	-48
om	-49
el	-50
▁re	-51
am	-52
ol	-53
▁l	-54
ct	-55
▁B	-56
▁(	-57
▁P	-58
ad	-59
▁I	-60
▁n	-61
et	-62
▁The	-63
ur	-64
▁th	-65
iv	-66
▁H	-67
▁e	-68
ch	-69
ation	-70
▁R	-71
▁was	-72
us	-73
ly	-74
id	-75
ers	-76
ig	-77
ir	-78
ce	-79
im	-80
▁for	-81
ot	-82
▁on	-83
▁2	-84
▁D	-85
▁L	-86
ut	-87
▁F	-88
▁g	-89
▁19	-90
▁is	-91
ow	-92
ra	-93
▁as	-94
ter	-95
▁G	-96
▁W	-97
ith	-98
▁be	-99
ay	-100
▁E	-101
▁N	-102
em	-103
un	-104
ist	-105
her	-106
ul	-107
▁st	-108
▁with	-109
and	-110
th	-111
ver	-112
▁by	-113
▁al	-114
▁J	-115
os	-116
um	-117
ag	-118
00	-119
rom	-120
▁wh	-121
op	-122
▁con	-123
▁an	-124
▁O	-125
ac	-126
est	-127
▁that	-128
ri	-129
▁at	-130
▁"	-131
▁In	-132
od	-133
▁v	-134
▁from	-135
ity	-136
ain	-137
▁de	-138
oc	-139
av	-140
res	-141
ies	-142
▁he	-143
▁pro	-144
if	-145
▁com	-146
ian	-147
ab	-148
▁U	-149
▁it	-150
ate	-151
▁or	-152
art	-153
up	-154
ew	-155
▁K	-156
ill	-157
ort	-158
ud	-159
ber	-160
pe	-161
▁se	-162
all	-163
▁St	-164
ard	-165
ich	-166
se	-167
igh	-168
qu	-169
ld	-170
▁are	-171
ia	-172
▁his	-173
ore	-174
ak	-175
ere	-176
ge	-177
ub	-178
ant	-179
ated	-180
ess	-181
ap	-182
▁r	-183
ip	-184
ment	-185
▁ex	-186
ial	-187
ive	-188
nt	-189
▁were	-190
ary	-191
▁ch	-192
ov	-193
▁pl	-194
▁Ch	-195
ish	-196
end	-197
og	-198
▁20	-199
▁V	-200
ine	-201
ong	-202
ast	-203
mer	-204
ug	-205
our	-206
ction	-207
und	-208
ell	-209
ical	-210
ear	-211
ure	-212
ame	-213
▁which	-214
ord	-215
▁200	-216
ost	-217
so	-218
uc	-219
ust	-220
ther	-221
ran	-222
ire	-223
▁Re	-224
▁le	-225
ks	-226
),	-227
19	-228
cl	-229
ight	-230
▁sh	-231
ie	-232
pt	-233
▁also	-234
▁k	-235
▁y	-236
fer	-237
rit	-238
▁us	-239
▁Un	-240
▁had	-241
▁comp	-242
age	-243
are	-244
ue	-245
ous	-246
▁un	-247
▁18	-248
ome	-249
▁not	-250
pl	-251
▁–	-252
per	-253
ry	-254
ff	-255
port	-256
ass	-257
ition	-258
iz	-259
ave	-260
▁He	-261
tern	-262
ount	-263
ces	-264
▁201	-265
ign	-266
ect	-267
irst	-268
man	-269
ric	-270
ide	-271
▁ar	-272
▁Th	-273
ations	-274
▁int	-275
▁cont	-276
▁whe	-277
own	-278
ens	-279
ond	-280
ult	-281
▁has	-282
ory	-283
erv	-284
ork	-285
ack	-286
ater	-287
▁cl	-288
land	-289
ph	-290
▁Al	-291
▁ad	-292
hed	-293
▁3	-294
ice	-295
▁its	-296
fter	-297
▁first	-298
ok	-299
ang	-300
ib	-301
▁Se	-302
ates	-303
▁It	-304
▁part	-305
▁Y	-306
ence	-307
▁res	-308
wo	-309
▁ro	-310
out	-311
▁their	-312
ng	-313
ime	-314
).	-315
ican	-316
ally	-317
▁ap	-318
ree	-319
▁199	-320
cc	-321
▁but	-322
wn	-323
over	-324
old	-325
▁te	-326
ach	-327
▁ab	-328
▁who	-329
clud	-330
ould	-331
ited	-332
▁per	-333
▁have	-334
ne	-335
act	-336
ational	-337
▁year	-338
▁one	-339
▁Amer	-340
▁all	-341
▁man	-342
ound	-343
ile	-344
ke	-345
ions	-346
ite	-347
ress	-348
ugh	-349
ru	-350
te	-351
ark	-352
ubl	-353
▁De	-354
▁Ar	-355
▁(19	-356
▁other	-357
ors	-358
▁bec	-359
▁this	-360
▁j	-361
▁includ	-362
▁play	-363
uch	-364
aw	-365
orm	-366
amp	-367
▁rec	-368
ace	-369
oll	-370
▁en	-371
gh	-372
ool	-373
▁dis	-374
uring	-375
ents	-376
ade	-377
ath	-378
▁two	-379
▁ag	-380
ild	-381
vel	-382
▁New	-383
one	-384
orn	-385
ts	-386
ely	-387
▁been	-388
▁im	-389
▁4	-390
able	-391
▁Com	-392
ons	-393
les	-394
ose	-395
we	-396
▁American	-397
▁comm	-398
▁sc	-399
oy	-400
▁her	-401
▁As	-402
ivers	-403
ail	-404
ased	-405
▁des	-406
iss	-407
ase	-408
ob	-409
▁Mar	-410
▁sp	-411
oin	-412
ough	-413
▁198	-414
ied	-415
▁can	-416
▁Le	-417
▁ra	-418
ilm	-419
▁ne	-420
▁after	-421
red	-422
▁over	-423
ember	-424
ind	-425
ted	-426
▁out	-427
ople	-428
chool	-429
ings	-430
io	-431
▁up	-432
ood	-433
ance	-434
▁und	-435
▁into	-436
▁new	-437
hip	-438
ward	-439
▁pe	-440
▁they	-441
urn	-442
als	-443
▁off	-444
ics	-445
ren	-446
▁ev	-447
du	-448
ury	-449
▁197	-450
ans	-451
orld	-452
lect	-453
▁under	-454
way	-455
ft	-456
▁5	-457
▁gro	-458
oh	-459
▁pre	-460
▁more	-461
ont	-462
gan	-463
ake	-464
▁att	-465
olog	-466
ences	-467
rough	-468
▁6	-469
▁time	-470
▁act	-471
▁spe	-472
ram	-473
rans	-474
ished	-475
outh	-476
ton	-477
ener	-478
reat	-479
▁tra	-480
▁United	-481
▁loc	-482
cess	-483
orth	-484
▁serv	-485
ious	-486
ouse	-487
▁Ex	-488
rib	-489
▁cent	-490
▁sy	-491
▁bet	-492
ict	-493
20	-494
opul	-495
duc	-496
ep	-497
ral	-498
▁form	-499
▁years	-500
▁cons	-501
▁used	-502
▁kn	-503
▁we	-504
▁would	-505
oth	-506
▁ind	-507
▁Sh	-508
ale	-509
▁when	-510
▁film	-511
▁reg	-512
▁most	-513
▁-	-514
▁me	-515
▁him	-516
▁pr	-517
form	-518
aus	-519
ities	-520
▁196	-521
ck	-522
▁work	-523
ve	-524
ision	-525
ick	-526
▁This	-527
ween	-528
▁An	-529
arly	-530
ah	-531
▁On	-532
ident	-533
▁sup	-534
inal	-535
▁inc	-536
▁only	-537
▁pol	-538
▁sub	-539
amil	-540
▁Eng	-541
rad	-542
▁there	-543
cial	-544
▁such	-545
▁op	-546
▁rel	-547
ince	-548
att	-549
ix	-550
overn	-551
▁sec	-552
▁publ	-553
ars	-554
oun	-555
▁popul	-556
ual	-557
ative	-558
▁bu	-559
ames	-560
che	-561
ists	-562
▁people	-563
▁fl	-564
▁between	-565
ife	-566
iversity	-567
ced	-568
▁during	-569
ins	-570
iel	-571
▁Pro	-572
ollow	-573
▁pres	-574
▁some	-575
▁inter	-576
▁acc	-577
pro	-578
▁than	-579
ism	-580
ific	-581
▁col	-582
▁bo	-583
▁them	-584
ann	-585
iet	-586
▁she	-587
▁Sc	-588
0,	-589
erm	-590
".	-591
▁where	-592
▁Cl	-593
ines	-594
▁Col	-595
aj	-596
az	-597
▁ret	-598
ferences	-599
▁num	-600
ock	-601
▁Joh	-602
▁(1	-603
▁so	-604
▁States	-605
▁Ind	-606
▁qu	-607
▁ass	-608
▁rem	-609
▁through	-610
ier	-611
▁Z	-612
ll	-613
pr	-614
ower	-615
ating	-616
iver	-617
arl	-618
raph	-619
ten	-620
emb	-621
▁fe	-622
eries	-623
der	-624
air	-625
▁est	-626
any	-627
▁again	-628
arg	-629
",	-630
0.	-631
pos	-632
▁mus	-633
ik	-634
▁stud	-635
lish	-636
▁co	-637
stem	-638
▁trans	-639
inn	-640
▁ac	-641
▁about	-642
fore	-643
ley	-644
▁John	-645
▁7	-646
▁made	-647
4,	-648
ject	-649
▁later	-650
▁found	-651
▁194	-652
ever	-653
round	-654
▁Is	-655
ern	-656
▁For	-657
iam	-658
▁am	-659
velop	-660
▁set	-661
1,	-662
▁17	-663
ys	-664
▁call	-665
▁prov	-666
hen	-667
."	-668
erman	-669
very	-670
▁mov	-671
its	-672
▁three	-673
cent	-674
▁War	-675
▁inv	-676
▁195	-677
▁Brit	-678
▁University	-679
ros	-680
▁then	-681
▁known	-682
ounty	-683
▁References	-684
▁Be	-685
▁ph	-686
istory	-687
▁end	-688
ron	-689
ution	-690
▁follow	-691
▁def	-692
ert	-693
▁mod	-694
ures	-695
ement	-696
5,	-697
▁Con	-698
▁At	-699
ball	-700
ason	-701
▁dist	-702
ober	-703
▁became	-704
▁rele	-705
▁lin	-706
oot	-707
ise	-708
▁many	-709
bum	-710
▁bl	-711
▁writ	-712
▁8	-713
ash	-714
ield	-715
▁Fran	-716
▁Can	-717
▁ent	-718
cy	-719
▁no	-720
▁Te	-721
▁9	-722
ather	-723
ived	-724
▁ed	-725
els	-726
▁do	-727
enn	-728
▁Bl	-729
ature	-730
▁Sp	-731
▁being	-732
iving	-733
▁including	-734
▁pos	-735
2,	-736
▁med	-737
erson	-738
ike	-739
irect	-740
▁Q	-741
▁famil	-742
ograph	-743
▁Comm	-744
▁well	-745
owever	-746
▁may	-747
ternal	-748
▁Wh	-749
▁art	-750
▁record	-751
ments	-752
▁Ph	-753
iew	-754
▁char	-755
6,	-756
eth	-757
▁sing	-758
200	-759
▁city	-760
▁inst	-761
other	-762
▁appe	-763
▁World	-764
▁group	-765
▁sur	-766
arri	-767
▁oper	-768
▁add	-769
▁lead	-770
▁em	-771
▁system	-772
ank	-773
▁second	-774
▁orig	-775
▁town	-776
▁develop	-777
▁govern	-778
cept	-779
3,	-780
lection	-781
son	-782
ina	-783
▁German	-784
▁album	-785
▁gener	-786
▁Ge	-787
▁dif	-788
elf	-789
ty	-790
ually	-791
ax	-792
▁series	-793
▁Ad	-794
eb	-795
▁main	-796
uro	-797
▁while	-798
uss	-799
▁school	-800
▁cap	-801
lev	-802
▁dec	-803
▁Pl	-804
ales	-805
▁.	-806
ays	-807
ized	-808
▁high	-809
8,	-810
▁own	-811
▁number	-812
▁Or	-813
▁Aust	-814
▁area	-815
▁both	-816
led	-817
ional	-818
▁team	-819
til	-820
▁four	-821
ired	-822
ause	-823
urch	-824
7,	-825
▁School	-826
▁sign	-827
ute	-828
▁name	-829
ract	-830
▁use	-831
▁age	-832
▁links	-833
▁estab	-834
▁show	-835
rid	-836
▁var	-837
▁National	-838
rist	-839
my	-840
ural	-841
ven	-842
une	-843
amed	-844
ives	-845
ajor	-846
▁British	-847
▁cre	-848
▁before	-849
▁min	-850
ved	-851
▁sever	-852
▁mon	-853
▁called	-854
▁193	-855
ting	-856
ology	-857
imes	-858
ient	-859
ians	-860
▁York	-861
fl	-862
▁air	-863
aid	-864
▁ob	-865
ple	-866
ues	-867
▁County	-868
▁until	-869
ered	-870
▁any	-871
▁Mus	-872
▁She	-873
▁16	-874
ull	-875
▁house	-876
▁External	-877
▁Pr	-878
▁bro	-879
▁May	-880
ared	-881
▁aut	-882
▁ext	-883
1.	-884
▁sm	-885
▁After	-886
▁against	-887
▁count	-888
ained	-889
duced	-890
2.	-891
▁produ	-892
▁prog	-893
000	-894
▁Me	-895
▁exp	-896
▁design	-897
ible	-898
▁offic	-899
▁population	-900
▁direct	-901
▁Jan	-902
ene	-903
▁$	-904
▁these	-905
ium	-906
▁rep	-907
ility	-908
hes	-909
▁15	-910
ets	-911
ful	-912
ister	-913
▁music	-914
arn	-915
con	-916
ird	-917
ically	-918
▁comple	-919
au	-920
rand	-921
▁polit	-922
▁const	-923
▁early	-924
vent	-925
▁Canad	-926
▁South	-927
the	-928
ages	-929
▁King	-930
ey	-931
▁There	-932
▁long	-933
▁back	-934
ross	-935
▁bel	-936
ants	-937
▁English	-938
▁same	-939
pect	-940
▁Cent	-941
▁gu	-942
▁dr	-943
▁eff	-944
▁Euro	-945
▁North	-946
embers	-947
▁suc	-948
▁Man	-949
por	-950
eng	-951
▁contin	-952
▁Pol	-953
for	-954
▁several	-955
arm	-956
ular	-957
9,	-958
ai	-959
▁song	-960
ange	-961
oman	-962
ital	-963
▁state	-964
▁elect	-965
▁sim	-966
–19	-967
▁fin	-968
4.	-969
ruct	-970
▁charact	-971
▁Will	-972
▁land	-973
3.	-974
ret	-975
▁Bo	-976
▁II	-977
by	-978
▁Ju	-979
xt	-980
▁Nov	-981
▁open	-982
ica	-983
▁10	-984
▁Pe	-985
▁will	-986
oci	-987
ission	-988
istor	-989
▁public	-990
aking	-991
▁Ed	-992
rict	-993
ternational	-994
▁family	-995
▁'	-996
▁&	-997
5.	-998
▁support	-999
▁death	-1000
oint	-1001
ued	-1002
▁former	-1003
▁disc	-1004
▁All	-1005
▁vers	-1006
rop	-1007
▁ann	-1008
ague	-1009
ains	-1010
ris	-1011
▁child	-1012
ctions	-1013
▁run	-1014
▁result	-1015
ided	-1016
–1	-1017
▁dep	-1018
uary	-1019
▁His	-1020
ilt	-1021
▁near	-1022
▁build	-1023
▁government	-1024
▁City	-1025
ec	-1026
▁spec	-1027
▁term	-1028
ring	-1029
▁Europe	-1030
ott	-1031
▁Co	-1032
ped	-1033
ugust	-1034
▁century	-1035
▁season	-1036
▁game	-1037
▁life	-1038
yl	-1039
▁occ	-1040
ove	-1041
▁program	-1042
chn	-1043
hold	-1044
ised	-1045
6.	-1046
▁line	-1047
▁major	-1048
▁since	-1049
8.	-1050
eter	-1051
▁Air	-1052
▁Christ	-1053
resent	-1054
The	-1055
7.	-1056
▁Austral	-1057
▁old	-1058
angu	-1059
yn	-1060
ilit	-1061
▁rece	-1062
▁Bro	-1063
▁US	-1064
▁organ	-1065
▁go	-1066
isc	-1067
rent	-1068
erg	-1069
▁small	-1070
arch	-1071
rench	-1072
apan	-1073
▁released	-1074
ptember	-1075
▁Car	-1076
▁return	-1077
▁commun	-1078
▁August	-1079
▁band	-1080
ices	-1081
▁Gu	-1082
▁Cal	-1083
▁Af	-1084
omen	-1085
▁Oct	-1086
ator	-1087
▁eng	-1088
▁Am	-1089
▁differ	-1090
ony	-1091
▁They	-1092
yp	-1093
ek	-1094
▁Fl	-1095
▁pass	-1096
▁partic	-1097
▁did	-1098
▁each	-1099
▁could	-1100
ats	-1101
though	-1102
ined	-1103
tle	-1104
ths	-1105
ode	-1106
arge	-1107
▁tr	-1108
▁Em	-1109
▁sl	-1110
▁along	-1111
lege	-1112
ience	-1113
▁world	-1114
▁September	-1115
sh	-1116
▁However	-1117
levision	-1118
▁start	-1119
ble	-1120
▁began	-1121
ended	-1122
▁cur	-1123
bo	-1124
▁desc	-1125
▁March	-1126
ane	-1127
▁met	-1128
▁June	-1129
▁class	-1130
..	-1131
▁Har	-1132
▁October	-1133
▁Japan	-1134
mber	-1135
▁(200	-1136
▁January	-1137
ography	-1138
▁care	-1139
▁mat	-1140
▁French	-1141
reen	-1142
ille	-1143
▁contro	-1144
atic	-1145
▁West	-1146
illion	-1147
pril	-1148
▁members	-1149
▁rev	-1150
com	-1151
to	-1152
ior	-1153
▁following	-1154
▁July	-1155
hor	-1156
af	-1157
▁,	-1158
▁success	-1159
ording	-1160
ights	-1161
ham	-1162
ootball	-1163
▁str	-1164
wards	-1165
▁ins	-1166
▁Geor	-1167
cember	-1168
lished	-1169
▁191	-1170
ival	-1171
▁head	-1172
▁192	-1173
▁named	-1174
ize	-1175
▁based	-1176
ster	-1177
▁X	-1178
▁Ass	-1179
ese	-1180
orks	-1181
me	-1182
▁Ab	-1183
▁present	-1184
▁April	-1185
▁William	-1186
▁leg	-1187
▁Min	-1188
▁See	-1189
▁law	-1190
▁those	-1191
ner	-1192
▁person	-1193
inc	-1194
▁History	-1195
aving	-1196
▁larg	-1197
▁around	-1198
▁appro	-1199
▁Bar	-1200
let	-1201
aced	-1202
ondon	-1203
▁consid	-1204
▁December	-1205
9.	-1206
▁November	-1207
▁you	-1208
iety	-1209
▁now	-1210
▁often	-1211
iod	-1212
▁12	-1213
min	-1214
▁po	-1215
▁because	-1216
▁tit	-1217
▁prom	-1218
▁power	-1219
▁Mc	-1220
ung	-1221
▁Part	-1222
▁home	-1223
▁ref	-1224
que	-1225
row	-1226
▁requ	-1227
▁High	-1228
itions	-1229
fess	-1230
aim	-1231
▁soc	-1232
▁local	-1233
▁app	-1234
oss	-1235
▁large	-1236
▁Comp	-1237
▁Ro	-1238
▁par	-1239
▁household	-1240
▁rest	-1241
amb	-1242
▁bus	-1243
get	-1244
ounc	-1245
▁car	-1246
▁place	-1247
▁if	-1248
ords	-1249
▁Par	-1250
▁London	-1251
ling	-1252
aster	-1253
iness	-1254
▁allow	-1255
▁El	-1256
▁Sw	-1257
ney	-1258
201	-1259
▁incre	-1260
▁equ	-1261
ately	-1262
rew	-1263
▁Afric	-1264
ality	-1265
▁include	-1266
ently	-1267
▁played	-1268
▁fem	-1269
ively	-1270
ides	-1271
ified	-1272
▁non	-1273
▁station	-1274
▁due	-1275
▁River	-1276
omin	-1277
raft	-1278
▁established	-1279
▁trad	-1280
ards	-1281
iven	-1282
uck	-1283
augh	-1284
▁last	-1285
▁And	-1286
▁order	-1287
born	-1288
▁mark	-1289
▁located	-1290
▁det	-1291
urg	-1292
ford	-1293
▁Rep	-1294
conom	-1295
▁State	-1296
vers	-1297
attle	-1298
▁En	-1299
med	-1300
▁Park	-1301
bs	-1302
ration	-1303
▁built	-1304
ino	-1305
ization	-1306
▁av	-1307
▁Med	-1308
▁Sy	-1309
▁stand	-1310
ebru	-1311
eder	-1312
▁different	-1313
ebruary	-1314
▁within	-1315
estern	-1316
ilitary	-1317
▁won	-1318
ily	-1319
▁Dav	-1320
urther	-1321
▁camp	-1322
arried	-1323
▁cor	-1324
▁(18	-1325
▁ep	-1326
ports	-1327
▁hel	-1328
▁11	-1329
▁(199	-1330
idd	-1331
ourt	-1332
hem	-1333
▁took	-1334
▁company	-1335
reet	-1336
▁character	-1337
▁water	-1338
▁During	-1339
uf	-1340
day	-1341
ink	-1342
▁war	-1343
ae	-1344
ison	-1345
ially	-1346
▁period	-1347
▁February	-1348
▁left	-1349
▁Ne	-1350
▁lit	-1351
ald	-1352
▁14	-1353
▁dem	-1354
▁north	-1355
ief	-1356
ery	-1357
▁By	-1358
▁Acc	-1359
ze	-1360
▁every	-1361
▁said	-1362
ublic	-1363
century	-1364
alth	-1365
▁players	-1366
ency	-1367
▁make	-1368
▁short	-1369
▁Her	-1370
▁history	-1371
▁single	-1372
▁published	-1373
▁Pres	-1374
▁Sec	-1375
ask	-1376
ored	-1377
▁down	-1378
ody	-1379
ata	-1380
▁langu	-1381
aul	-1382
▁div	-1383
▁still	-1384
▁repl	-1385
▁common	-1386
akes	-1387
ases	-1388
▁Phil	-1389
par	-1390
▁children	-1391
read	-1392
▁refer	-1393
▁Russ	-1394
▁original	-1395
▁13	-1396
2)	-1397
▁bir	-1398
▁Ang	-1399
▁held	-1400
▁hum	-1401
▁though	-1402
stit	-1403
▁like	-1404
▁adv	-1405
▁included	-1406
▁Reg	-1407
ves	-1408
▁rad	-1409
ness	-1410
▁Not	-1411
▁television	-1412
▁Rec	-1413
ington	-1414
ampions	-1415
▁effect	-1416
▁Cor	-1417
▁list	-1418
▁tri	-1419
▁aver	-1420
▁even	-1421
▁day	-1422
▁Soc	-1423
ridge	-1424
ged	-1425
▁crit	-1426
ffic	-1427
iber	-1428
▁Sup	-1429
ps	-1430
▁event	-1431
▁very	-1432
anc	-1433
ouncil	-1434
itional	-1435
▁games	-1436
▁million	-1437
-1	-1438
▁port	-1439
olution	-1440
ler	-1441
▁cult	-1442
▁val	-1443
▁resp	-1444
▁England	-1445
▁iss	-1446
line	-1447
ches	-1448
▁manag	-1449
▁College	-1450
▁six	-1451
▁poss	-1452
alk	-1453
▁describ	-1454
▁vill	-1455
▁just	-1456
▁much	-1457
▁Gl	-1458
int	-1459
▁House	-1460
▁la	-1461
oph	-1462
ensus	-1463
▁Island	-1464
▁south	-1465
ample	-1466
▁Ital	-1467
▁national	-1468
ument	-1469
▁1,	-1470
▁vis	-1471
▁hand	-1472
▁career	-1473
ox	-1474
ured	-1475
ray	-1476
▁member	-1477
▁another	-1478
▁Char	-1479
▁top	-1480
▁five	-1481
tain	-1482
▁League	-1483
▁190	-1484
▁service	-1485
5)	-1486
▁La	-1487
▁lo	-1488
▁No	-1489
▁cr	-1490
omet	-1491
▁One	-1492
side	-1493
▁exper	-1494
dom	-1495
ones	-1496
▁election	-1497
▁led	-1498
1)	-1499
▁expl	-1500
ms	-1501
ugg	-1502
▁import	-1503
ius	-1504
avy	-1505
▁pat	-1506
▁ship	-1507
3)	-1508
▁Res	-1509
aces	-1510
urs	-1511
adem	-1512
▁post	-1513
▁When	-1514
▁among	-1515
4)	-1516
▁book	-1517
uk	-1518
▁es	-1519
▁received	-1520
epend	-1521
ense	-1522
oks	-1523
unic	-1524
▁average	-1525
ries	-1526
▁author	-1527
eneral	-1528
▁read	-1529
▁version	-1530
▁late	-1531
ories	-1532
8)	-1533
▁fact	-1534
▁football	-1535
▁International	-1536
▁popular	-1537
▁living	-1538
▁using	-1539
▁stat	-1540
6)	-1541
vious	-1542
▁techn	-1543
ript	-1544
▁infl	-1545
▁process	-1546
▁Dem	-1547
▁aff	-1548
▁San	-1549
7)	-1550
▁served	-1551
▁fre	-1552
▁Roy	-1553
▁what	-1554
uted	-1555
rest	-1556
▁perform	-1557
▁report	-1558
▁fun	-1559
empt	-1560
▁Act	-1561
sc	-1562
inning	-1563
▁sold	-1564
▁histor	-1565
▁We	-1566
▁Tr	-1567
▁son	-1568
tal	-1569
ivil	-1570
▁appear	-1571
▁Br	-1572
▁origin	-1573
▁represent	-1574
▁These	-1575
▁player	-1576
ruction	-1577
▁conc	-1578
work	-1579
▁100	-1580
▁mag	-1581
riend	-1582
aint	-1583
▁beg	-1584
▁join	-1585
posed	-1586
▁Mich	-1587
ship	-1588
▁sk	-1589
ole	-1590
ploy	-1591
▁educ	-1592
ivid	-1593
▁nov	-1594
▁189	-1595
▁prot	-1596
▁People	-1597
▁intro	-1598
▁Ap	-1599
▁Roman	-1600
▁kill	-1601
alf	-1602
umb	-1603
oon	-1604
.,	-1605
▁role	-1606
▁chang	-1607
▁country	-1608
▁East	-1609
ideo	-1610
▁current	-1611
▁general	-1612
▁Ste	-1613
▁Ag	-1614
▁Canada	-1615
ilar	-1616
iforn	-1617
▁vot	-1618
de	-1619
▁third	-1620
▁Sch	-1621
▁level	-1622
▁Rober	-1623
▁Tra	-1624
▁Dist	-1625
hern	-1626
▁James	-1627
▁Church	-1628
bor	-1629
ering	-1630
▁Des	-1631
ining	-1632
▁Per	-1633
osp	-1634
irc	-1635
▁died	-1636
▁Port	-1637
▁political	-1638
▁engine	-1639
▁Californ	-1640
0)	-1641
▁turn	-1642
ours	-1643
▁become	-1644
▁example	-1645
▁women	-1646
na	-1647
cast	-1648
▁clos	-1649
▁Ac	-1650
▁George	-1651
▁Qu	-1652
▁Mon	-1653
▁del	-1654
▁Other	-1655
▁claim	-1656
▁given	-1657
▁club	-1658
▁California	-1659
▁fac	-1660
▁invol	-1661
ront	-1662
▁25	-1663
reg	-1664
be	-1665
▁compos	-1666
▁men	-1667
▁Sm	-1668
ville	-1669
ched	-1670
▁films	-1671
▁great	-1672
rick	-1673
▁field	-1674
mp	-1675
▁Party	-1676
▁tem	-1677
ana	-1678
▁few	-1679
alt	-1680
ara	-1681
ots	-1682
▁Art	-1683
▁deb	-1684
▁Indian	-1685
▁el	-1686
formation	-1687
ops	-1688
ounced	-1689
craft	-1690
mit	-1691
co	-1692
▁Rich	-1693
orthern	-1694
▁activ	-1695
▁born	-1696
▁sit	-1697
▁arch	-1698
▁final	-1699
BC	-1700
rote	-1701
of	-1702
▁vol	-1703
part	-1704
ape	-1705
ampionship	-1706
yle	-1707
▁Govern	-1708
ourn	-1709
▁With	-1710
▁According	-1711
▁List	-1712
▁compet	-1713
▁business	-1714
▁Hol	-1715
▁came	-1716
▁various	-1717
▁cover	-1718
▁produced	-1719
app	-1720
▁military	-1721
▁best	-1722
9)	-1723
reek	-1724
▁bre	-1725
ett	-1726
▁hig	-1727
ead	-1728
▁project	-1729
▁control	-1730
▁feature	-1731
▁init	-1732
▁Army	-1733
▁total	-1734
ows	-1735
▁188	-1736
self	-1737
eum	-1738
▁development	-1739
leg	-1740
▁side	-1741
▁production	-1742
pecial	-1743
▁epis	-1744
astern	-1745
▁created	-1746
▁fore	-1747
▁typ	-1748
▁way	-1749
▁profess	-1750
view	-1751
▁Thom	-1752
▁influ	-1753
▁building	-1754
ush	-1755
▁prim	-1756
▁econom	-1757
▁conf	-1758
rag	-1759
▁Street	-1760
thern	-1761
ander	-1762
▁individ	-1763
▁France	-1764
▁21	-1765
▁however	-1766
sp	-1767
▁father	-1768
▁America	-1769
▁feat	-1770
itar	-1771
▁General	-1772
acks	-1773
field	-1774
▁considered	-1775
▁ant	-1776
duct	-1777
0%	-1778
▁(198	-1779
▁special	-1780
less	-1781
uel	-1782
▁without	-1783
▁lim	-1784
▁previous	-1785
▁Nor	-1786
▁gl	-1787
▁rail	-1788
outhern	-1789
lin	-1790
lex	-1791
ological	-1792
▁David	-1793
▁European	-1794
ummer	-1795
▁Ant	-1796
olic	-1797
▁squ	-1798
▁similar	-1799
ociation	-1800
▁need	-1801
forman	-1802
▁Town	-1803
umn	-1804
▁President	-1805
aff	-1806
abor	-1807
iron	-1808
▁0.	-1809
iction	-1810
▁Film	-1811
▁moved	-1812
▁having	-1813
▁Que	-1814
ention	-1815
▁ter	-1816
sequ	-1817
▁Australia	-1818
aken	-1819
ael	-1820
▁Mor	-1821
▁You	-1822
▁comb	-1823
ope	-1824
▁married	-1825
lo	-1826
omb	-1827
▁attempt	-1828
▁take	-1829
▁Val	-1830
ination	-1831
▁wrote	-1832
▁Royal	-1833
▁Lou	-1834
▁inf	-1835
▁Trans	-1836
ither	-1837
▁official	-1838
▁186	-1839
▁caus	-1840
▁Rail	-1841
▁dest	-1842
▁times	-1843
tt	-1844
▁site	-1845
▁Canadian	-1846
iles	-1847
▁less	-1848
▁sw	-1849
▁Hall	-1850
ests	-1851
▁Paul	-1852
▁(201	-1853
▁mult	-1854
ogn	-1855
▁title	-1856
▁beh	-1857
▁young	-1858
anish	-1859
▁ident	-1860
▁Gro	-1861
▁point	-1862
▁indust	-1863
▁host	-1864
eg	-1865
ways	-1866
▁tw	-1867
ype	-1868
▁sent	-1869
▁Union	-1870
▁gr	-1871
▁sol	-1872
ex	-1873
▁written	-1874
▁struct	-1875
▁modern	-1876
▁next	-1877
ached	-1878
▁Hen	-1879
gether	-1880
▁together	-1881
▁Black	-1882
▁Award	-1883
▁areas	-1884
ibr	-1885
▁pract	-1886
▁male	-1887
ators	-1888
▁works	-1889
▁187	-1890
ream	-1891
ertain	-1892
ably	-1893
▁Some	-1894
▁language	-1895
▁view	-1896
urb	-1897
▁hous	-1898
utes	-1899
bert	-1900
rap	-1901
▁important	-1902
era	-1903
iment	-1904
▁village	-1905
▁Pre	-1906
▁Bel	-1907
▁income	-1908
▁announced	-1909
ule	-1910
ested	-1911
▁attack	-1912
ama	-1913
▁region	-1914
▁real	-1915
rated	-1916
▁community	-1917
▁bas	-1918
ances	-1919
▁establish	-1920
ming	-1921
▁Jew	-1922
▁Japanese	-1923
▁size	-1924
▁Red	-1925
▁Bra	-1926
▁continued	-1927
▁2.	-1928
hel	-1929
atter	-1930
off	-1931
▁party	-1932
▁Robert	-1933
arth	-1934
▁White	-1935
▁Council	-1936
▁story	-1937
ipp	-1938
▁went	-1939
iding	-1940
val	-1941
acy	-1942
▁developed	-1943
nect	-1944
ico	-1945
▁appl	-1946
▁Pal	-1947
▁groups	-1948
minist	-1949
▁position	-1950
▁broad	-1951
key	-1952
aining	-1953
▁rese	-1954
wood	-1955
▁From	-1956
▁full	-1957
unicip	-1958
▁although	-1959
▁Great	-1960
▁students	-1961
▁su	-1962
iddle	-1963
▁proper	-1964
icle	-1965
▁Road	-1966
▁Je	-1967
ending	-1968
▁cond	-1969
most	-1970
used	-1971
50	-1972
▁defe	-1973
▁social	-1974
▁right	-1975
▁president	-1976
▁my	-1977
▁Kingdom	-1978
▁win	-1979
▁avail	-1980
iation	-1981
wh	-1982
etwork	-1983
▁produc	-1984
▁species	-1985
iol	-1986
rie	-1987
▁star	-1988
▁should	-1989
▁Dr	-1990
lands	-1991
ago	-1992
aper	-1993
idence	-1994
▁District	-1995
▁decl	-1996
▁exist	-1997
raw	-1998
▁opened	-1999
▁Charles	-2000
itor	-2001
▁2000	-2002
ky	-2003
▁imp	-2004
lear	-2005
▁African	-2006
▁[	-2007
▁Cup	-2008
▁Stud	-2009
▁ide	-2010
ethod	-2011
ocr	-2012
▁days	-2013
▁gen	-2014
arent	-2015
cer	-2016
▁further	-2017
▁case	-2018
▁Germany	-2019
van	-2020
ills	-2021
▁appeared	-2022
▁performan	-2023
▁low	-2024
now	-2025
aut	-2026
▁Music	-2027
▁2010	-2028
▁ke	-2029
▁To	-2030
▁Christian	-2031
▁offer	-2032
ising	-2033
▁returned	-2034
▁births	-2035
ateg	-2036
arliam	-2037
▁mater	-2038
play	-2039
▁First	-2040
▁human	-2041
apt	-2042
▁Lat	-2043
▁Mag	-2044
▁fail	-2045
ma	-2046
roy	-2047
istic	-2048
imate	-2049
ification	-2050
▁never	-2051
▁Vir	-2052
▁does	-2053
▁belie	-2054
▁separ	-2055
▁body	-2056
▁UK	-2057
▁(197	-2058
ources	-2059
▁phys	-2060
▁independ	-2061
▁Pat	-2062
▁Cath	-2063
▁road	-2064
▁friend	-2065
ning	-2066
arliament	-2067
▁30	-2068
▁pri	-2069
▁rul	-2070
ples	-2071
oe	-2072
▁described	-2073
ctor	-2074
▁Im	-2075
hers	-2076
▁novel	-2077
itive	-2078
▁Australian	-2079
ym	-2080
▁Ber	-2081
▁India	-2082
aign	-2083
▁himself	-2084
▁anim	-2085
ger	-2086
▁Wash	-2087
▁award	-2088
▁rock	-2089
lected	-2090
▁usually	-2091
▁median	-2092
▁formed	-2093
▁relations	-2094
▁light	-2095
▁Mart	-2096
▁Bu	-2097
▁My	-2098
▁Div	-2099
▁While	-2100
▁Mount	-2101
▁good	-2102
▁dev	-2103
here	-2104
ien	-2105
▁addition	-2106
ential	-2107
▁hold	-2108
▁available	-2109
▁grow	-2110
▁started	-2111
ournal	-2112
▁Ir	-2113
▁priv	-2114
▁Press	-2115
▁Mary	-2116
ership	-2117
ware	-2118
▁video	-2119
rain	-2120
▁z	-2121
▁base	-2122
▁grad	-2123
▁mot	-2124
▁others	-2125
oor	-2126
atural	-2127
▁1.	-2128
▁half	-2129
▁east	-2130
▁ve	-2131
▁lost	-2132
▁west	-2133
▁strong	-2134
ique	-2135
▁Sim	-2136
rian	-2137
▁largest	-2138
▁tro	-2139
▁must	-2140
▁—	-2141
▁Mal	-2142
▁Met	-2143
▁recorded	-2144
band	-2145
▁census	-2146
5%	-2147
ability	-2148
ederal	-2149
▁relig	-2150
gin	-2151
▁making	-2152
▁Thomas	-2153
▁employ	-2154
▁Mac	-2155
▁ren	-2156
▁international	-2157
▁Law	-2158
▁circ	-2159
▁Company	-2160
▁promot	-2161
▁Washington	-2162
atch	-2163
ificant	-2164
inese	-2165
▁find	-2166
▁Scott	-2167
anted	-2168
ude	-2169
▁Arch	-2170
aries	-2171
▁aircraft	-2172
▁cou	-2173
ointed	-2174
▁households	-2175
▁mid	-2176
yd	-2177
itz	-2178
▁Academ	-2179
▁Sl	-2180
-19	-2181
▁Grand	-2182
▁Association	-2183
▁ele	-2184
▁product	-2185
▁services	-2186
ston	-2187
pite	-2188
▁2020	-2189
ells	-2190
▁24	-2191
hib	-2192
▁coll	-2193
ament	-2194
irl	-2195
▁wife	-2196
▁race	-2197
ping	-2198
▁market	-2199
▁space	-2200
▁Cont	-2201
▁proble	-2202
ges	-2203
ari	-2204
sy	-2205
▁Cap	-2206
uation	-2207
▁Although	-2208
anies	-2209
ee	-2210
ying	-2211
▁brother	-2212
21	-2213
▁press	-2214
▁material	-2215
imately	-2216
idents	-2217
▁Rad	-2218
▁older	-2219
▁Sen	-2220
▁ground	-2221
duction	-2222
▁arr	-2223
▁Pri	-2224
▁China	-2225
uter	-2226
ensive	-2227
▁fire	-2228
itect	-2229
▁model	-2230
aur	-2231
▁district	-2232
▁live	-2233
▁Sam	-2234
▁der	-2235
iers	-2236
▁Louis	-2237
iqu	-2238
▁2019	-2239
▁events	-2240
▁ce	-2241
▁laun	-2242
lymp	-2243
▁Western	-2244
▁states	-2245
▁TV	-2246
▁founded	-2247
aughter	-2248
ha	-2249
▁Don	-2250
▁invest	-2251
▁significant	-2252
ume	-2253
men	-2254
▁Bay	-2255
▁Inter	-2256
▁radio	-2257
ication	-2258
▁schools	-2259
ishing	-2260
burg	-2261
▁Gold	-2262
iography	-2263
▁recogn	-2264
mar	-2265
▁Records	-2266
ician	-2267
▁hon	-2268
▁office	-2269
pire	-2270
▁Gr	-2271
▁release	-2272
ened	-2273
▁Olymp	-2274
▁units	-2275
iting	-2276
ki	-2277
udd	-2278
▁1990	-2279
▁sugg	-2280
▁tour	-2281
▁across	-2282
▁Center	-2283
▁forces	-2284
▁voc	-2285
▁seen	-2286
▁Leg	-2287
▁Richard	-2288
ceed	-2289
▁Championship	-2290
▁65	-2291
right	-2292
ids	-2293
▁Mont	-2294
oney	-2295
▁earl	-2296
▁becom	-2297
▁Chinese	-2298
▁Michael	-2299
▁deg	-2300
▁Mer	-2301
itte	-2302
▁free	-2303
▁Instit	-2304
▁Henry	-2305
▁Lake	-2306
odes	-2307
▁Serv	-2308
▁2,	-2309
oviet	-2310
▁either	-2311
▁cost	-2312
▁how	-2313
alls	-2314
▁introduced	-2315
▁sound	-2316
ula	-2317
ometimes	-2318
▁families	-2319
ements	-2320
▁fund	-2321
▁Angel	-2322
▁Alex	-2323
▁Green	-2324
▁Mex	-2325
▁Court	-2326
isl	-2327
▁successful	-2328
▁Frank	-2329
▁cross	-2330
oints	-2331
▁female	-2332
oice	-2333
▁Year	-2334
itch	-2335
▁guitar	-2336
▁meet	-2337
aker	-2338
▁Cong	-2339
30	-2340
▁Histor	-2341
cle	-2342
▁Miss	-2343
▁Vict	-2344
▁plan	-2345
year	-2346
▁ten	-2347
▁associ	-2348
▁Sing	-2349
▁di	-2350
▁1980	-2351
ought	-2352
▁impro	-2353
▁church	-2354
atives	-2355
▁agre	-2356
ergy	-2357
▁research	-2358
asing	-2359
▁Op	-2360
atory	-2361
ellow	-2362
viron	-2363
ilities	-2364
▁mean	-2365
▁information	-2366
▁black	-2367
▁Society	-2368
▁God	-2369
west	-2370
▁Cons	-2371
▁185	-2372
▁followed	-2373
▁Franc	-2374
▁doc	-2375
▁treat	-2376
▁liter	-2377
▁test	-2378
▁cast	-2379
▁arg	-2380
▁red	-2381
▁Vol	-2382
ibrary	-2383
elt	-2384
▁songs	-2385
▁("	-2386
▁et	-2387
▁anal	-2388
ij	-2389
▁Central	-2390
▁months	-2391
▁elected	-2392
▁once	-2393
anding	-2394
ensity	-2395
elling	-2396
▁Mark	-2397
▁taken	-2398
▁sym	-2399
▁Peter	-2400
berg	-2401
▁Tex	-2402
▁worked	-2403
▁exec	-2404
3%	-2405
emor	-2406
aps	-2407
incip	-2408
▁tre	-2409
mercial	-2410
▁campaign	-2411
aval	-2412
▁joined	-2413
▁education	-2414
▁Lit	-2415
▁episode	-2416
▁Italian	-2417
▁Sal	-2418
fic	-2419
▁reported	-2420
,"	-2421
▁method	-2422
▁access	-2423
▁week	-2424
▁ste	-2425
▁entire	-2426
II	-2427
utions	-2428
hest	-2429
▁Ze	-2430
oms	-2431
▁Wil	-2432
time	-2433
▁Soviet	-2434
ularly	-2435
2%	-2436
▁Spanish	-2437
▁184	-2438
oul	-2439
rey	-2440
▁vict	-2441
▁see	-2442
▁wid	-2443
▁contrib	-2444
▁Russian	-2445
▁Catholic	-2446
face	-2447
▁mother	-2448
▁Ter	-2449
road	-2450
rab	-2451
▁acqu	-2452
▁throughout	-2453
▁Tur	-2454
▁front	-2455
not	-2456
▁systems	-2457
cks	-2458
vin	-2459
▁Museum	-2460
▁Early	-2461
▁working	-2462
leb	-2463
ference	-2464
ades	-2465
▁Bur	-2466
edy	-2467
ression	-2468
azine	-2469
▁(196	-2470
▁pain	-2471
▁mar	-2472
uals	-2473
▁above	-2474
▁civil	-2475
rel	-2476
serv	-2477
head	-2478
▁enc	-2479
ores	-2480
▁remained	-2481
▁originally	-2482
▁replaced	-2483
ufact	-2484
▁dam	-2485
▁capt	-2486
▁includes	-2487
ida	-2488
icles	-2489
▁particip	-2490
▁style	-2491
▁webs	-2492
▁lab	-2493
▁2005	-2494
▁Minister	-2495
▁Tom	-2496
▁Ser	-2497
▁Mad	-2498
ux	-2499
▁features	-2500
enc	-2501
▁frequ	-2502
▁county	-2503
▁countries	-2504
ranch	-2505
▁range	-2506
▁Best	-2507
▁Virgin	-2508
chie	-2509
▁Jose	-2510
▁get	-2511
▁eventually	-2512
ource	-2513
icated	-2514
4%	-2515
6%	-2516
▁Ke	-2517
St	-2518
8%	-2519
1%	-2520
ply	-2521
▁Tor	-2522
▁1970	-2523
7%	-2524
▁rather	-2525
▁track	-2526
▁Group	-2527
▁2004	-2528
▁put	-2529
▁occur	-2530
▁deaths	-2531
▁designed	-2532
▁respect	-2533
▁Educ	-2534
▁function	-2535
olf	-2536
▁gave	-2537
,000	-2538
▁Bill	-2539
▁study	-2540
ems	-2541
▁cour	-2542
gy	-2543
▁mass	-2544
▁eight	-2545
▁consist	-2546
pan	-2547
▁construction	-2548
arian	-2549
▁stri	-2550
▁Day	-2551
▁mount	-2552
icy	-2553
▁meas	-2554
▁change	-2555
▁phot	-2556
▁least	-2557
▁subject	-2558
▁Dan	-2559
▁transl	-2560
erous	-2561
ites	-2562
▁But	-2563
▁king	-2564
▁depart	-2565
go	-2566
ving	-2567
▁object	-2568
aves	-2569
▁Public	-2570
igned	-2571
utive	-2572
▁Ire	-2573
▁Division	-2574
▁characters	-2575
▁Che	-2576
▁Hill	-2577
▁round	-2578
▁females	-2579
tra	-2580
▁upon	-2581
▁Rock	-2582
ror	-2583
▁fight	-2584
vert	-2585
▁completed	-2586
▁white	-2587
▁Republic	-2588
▁Up	-2589
ita	-2590
▁conduct	-2591
▁companies	-2592
▁Democr	-2593
unn	-2594
unk	-2595
omm	-2596
▁Academy	-2597
pecially	-2598
▁performed	-2599
writ	-2600
▁Club	-2601
sel	-2602
▁administ	-2603
▁bar	-2604
vironment	-2605
▁Most	-2606
annel	-2607
▁director	-2608
▁Mod	-2609
▁2006	-2610
▁Commun	-2611
▁match	-2612
▁type	-2613
▁foc	-2614
▁Smith	-2615
ground	-2616
arily	-2617
▁contract	-2618
▁Kh	-2619
▁municip	-2620
▁Fin	-2621
▁pur	-2622
▁ser	-2623
ittee	-2624
hood	-2625
")	-2626
▁Rev	-2627
ressed	-2628
▁Since	-2629
CA	-2630
▁points	-2631
▁below	-2632
▁Depart	-2633
TV	-2634
▁parts	-2635
▁Cast	-2636
▁Victor	-2637
▁stations	-2638
etic	-2639
▁aud	-2640
▁possible	-2641
▁Du	-2642
▁anc	-2643
▁constit	-2644
▁Do	-2645
▁miss	-2646
▁standard	-2647
▁killed	-2648
▁force	-2649
▁accept	-2650
▁Africa	-2651
▁provided	-2652
▁featured	-2653
ked	-2654
ota	-2655
▁leading	-2656
▁ill	-2657
▁critic	-2658
▁Chic	-2659
▁discover	-2660
▁help	-2661
▁Texas	-2662
▁performance	-2663
▁instead	-2664
▁data	-2665
aching	-2666
▁Battle	-2667
▁command	-2668
▁subsequ	-2669
▁pot	-2670
uture	-2671
unt	-2672
▁review	-2673
▁away	-2674
▁able	-2675
▁appointed	-2676
▁respons	-2677
▁cal	-2678
▁cop	-2679
order	-2680
▁rights	-2681
9%	-2682
▁reb	-2683
▁surv	-2684
airs	-2685
▁connect	-2686
▁Camp	-2687
▁fav	-2688
▁website	-2689
▁sometimes	-2690
▁culture	-2691
▁#	-2692
▁Fore	-2693
atre	-2694
▁bi	-2695
bour	-2696
ception	-2697
rial	-2698
iff	-2699
▁pred	-2700
▁key	-2701
▁viol	-2702
▁Ireland	-2703
▁shows	-2704
▁court	-2705
aged	-2706
▁opt	-2707
–18	-2708
▁Old	-2709
olk	-2710
▁Paris	-2711
estival	-2712
▁distrib	-2713
rought	-2714
▁close	-2715
▁Kn	-2716
uns	-2717
▁lower	-2718
ya	-2719
▁fig	-2720
▁density	-2721
ria	-2722
▁generally	-2723
ka	-2724
▁saw	-2725
▁Carol	-2726
▁square	-2727
rup	-2728
▁Navy	-2729
▁central	-2730
put	-2731
▁Department	-2732
▁destroy	-2733
▁neg	-2734
▁daughter	-2735
medi	-2736
▁BC	-2737
▁2007	-2738
▁rank	-2739
▁Cro	-2740
▁Los	-2741
▁assist	-2742
▁Rob	-2743
chan	-2744
▁commercial	-2745
▁mix	-2746
▁Second	-2747
▁Many	-2748
▁island	-2749
▁Pet	-2750
▁Play	-2751
▁added	-2752
▁Greek	-2753
▁past	-2754
▁hit	-2755
▁Institute	-2756
▁movement	-2757
▁Mass	-2758
▁itself	-2759
▁whose	-2760
▁trib	-2761
gen	-2762
▁interest	-2763
asc	-2764
▁Swed	-2765
▁Empire	-2766
▁dou	-2767
▁2008	-2768
▁22	-2769
nder	-2770
▁network	-2771
▁stage	-2772
▁capital	-2773
anks	-2774
▁Pac	-2775
▁far	-2776
▁private	-2777
▁ge	-2778
▁manufact	-2779
▁cy	-2780
kn	-2781
▁hard	-2782
▁professional	-2783
▁account	-2784
▁territ	-2785
▁architect	-2786
▁travel	-2787
▁know	-2788
▁almost	-2789
▁Force	-2790
aland	-2791
like	-2792
▁seven	-2793
▁sch	-2794
▁theory	-2795
Ch	-2796
10	-2797
▁regard	-2798
urity	-2799
▁books	-2800
▁Liber	-2801
▁Star	-2802
▁Saint	-2803
▁Chicago	-2804
▁broadcast	-2805
▁Atl	-2806
▁especially	-2807
uit	-2808
ios	-2809
▁observ	-2810
▁Irish	-2811
rd	-2812
▁Sir	-2813
▁center	-2814
▁Further	-2815
▁Flor	-2816
ension	-2817
▁3.	-2818
ires	-2819
amous	-2820
▁playing	-2821
▁instit	-2822
▁Two	-2823
asons	-2824
▁If	-2825
rael	-2826
.)	-2827
antic	-2828
cript	-2829
▁hom	-2830
▁action	-2831
▁Def	-2832
▁provide	-2833
▁1960	-2834
ounter	-2835
▁multip	-2836
ulation	-2837
▁Gra	-2838
▁higher	-2839
▁Penn	-2840
▁23	-2841
▁pay	-2842
ends	-2843
orpor	-2844
▁coast	-2845
ected	-2846
▁singer	-2847
▁achie	-2848
▁Class	-2849
▁collection	-2850
rol	-2851
▁Aut	-2852
▁Super	-2853
▁involved	-2854
ena	-2855
▁river	-2856
sych	-2857
▁stated	-2858
▁albums	-2859
ospital	-2860
▁pers	-2861
▁lik	-2862
itan	-2863
▁via	-2864
▁health	-2865
▁phil	-2866
▁inj	-2867
▁Mo	-2868
▁means	-2869
▁certain	-2870
oid	-2871
▁park	-2872
▁()	-2873
AS	-2874
▁tax	-2875
▁Life	-2876
▁occup	-2877
▁/	-2878
utch	-2879
action	-2880
▁word	-2881
▁Parliament	-2882
▁outside	-2883
▁signed	-2884
▁Ev	-2885
▁Congress	-2886
▁battle	-2887
▁oppos	-2888
ump	-2889
▁Mel	-2890
uments	-2891
umni	-2892
mon	-2893
asion	-2894
▁Scot	-2895
▁directed	-2896
▁cut	-2897
▁traditional	-2898
ises	-2899
–200	-2900
alled	-2901
▁sex	-2902
▁say	-2903
▁brought	-2904
str	-2905
▁effort	-2906
▁creat	-2907
▁places	-2908
▁183	-2909
ili	-2910
25	-2911
▁Government	-2912
▁Ben	-2913
▁princip	-2914
▁allowed	-2915
oper	-2916
▁Cur	-2917
▁cand	-2918
iences	-2919
▁food	-2920
▁fall	-2921
well	-2922
▁natural	-2923
▁stre	-2924
oke	-2925
cher	-2926
▁Just	-2927
▁required	-2928
▁2011	-2929
▁terms	-2930
...	-2931
▁Sant	-2932
▁reached	-2933
bers	-2934
▁Fort	-2935
▁Offic	-2936
clus	-2937
▁Brown	-2938
▁uses	-2939
inent	-2940
▁Education	-2941
▁wind	-2942
▁media	-2943
▁learn	-2944
▁relationship	-2945
▁training	-2946
▁Land	-2947
▁den	-2948
▁thus	-2949
bit	-2950
▁army	-2951
▁northern	-2952
based	-2953
ini	-2954
▁Squ	-2955
▁complex	-2956
ength	-2957
▁remov	-2958
▁actor	-2959
lim	-2960
▁night	-2961
▁26	-2962
▁Go	-2963
atal	-2964
▁neigh	-2965
▁leader	-2966
▁buildings	-2967
▁Del	-2968
▁CD	-2969
▁veh	-2970
usband	-2971
▁approx	-2972
▁determ	-2973
▁Kore	-2974
▁2003	-2975
▁writer	-2976
ero	-2977
▁adop	-2978
enced	-2979
▁sat	-2980
▁board	-2981
▁races	-2982
▁southern	-2983
ishop	-2984
▁Zealand	-2985
ste	-2986
hi	-2987
▁Fre	-2988
▁let	-2989
▁artists	-2990
▁Carl	-2991
▁loss	-2992
0,000	-2993
▁2009	-2994
▁changed	-2995
uz	-2996
owers	-2997
▁Its	-2998
known	-2999
▁Cr	-3000
elled	-3001
▁imm	-3002
▁Count	-3003
▁sem	-3004
▁Wood	-3005
▁reading	-3006
▁Jewish	-3007
▁28	-3008
ender	-3009
ection	-3010
▁Israel	-3011
▁Virginia	-3012
back	-3013
▁plann	-3014
ingu	-3015
Amer	-3016
▁Lord	-3017
ibility	-3018
▁sett	-3019
lam	-3020
▁industry	-3021
rig	-3022
▁according	-3023
▁Oper	-3024
sec	-3025
▁increased	-3026
▁Ma	-3027
ona	-3028
aught	-3029
gl	-3030
▁Railway	-3031
ications	-3032
▁Angeles	-3033
▁actress	-3034
▁Joseph	-3035
▁50	-3036
▁purch	-3037
▁km	-3038
▁poet	-3039
▁little	-3040
board	-3041
▁too	-3042
▁transfer	-3043
ani	-3044
▁er	-3045
▁individuals	-3046
▁teams	-3047
▁202	-3048
▁(195	-3049
het	-3050
reme	-3051
och	-3052
60	-3053
▁Sur	-3054
▁Order	-3055
▁Er	-3056
▁super	-3057
▁self	-3058
istry	-3059
ancial	-3060
▁mer	-3061
▁beginning	-3062
porary	-3063
▁decided	-3064
▁Mil	-3065
▁27	-3066
▁gold	-3067
▁operations	-3068
▁Sub	-3069
▁transport	-3070
▁Spe	-3071
ients	-3072
▁Columb	-3073
ada	-3074
▁Britain	-3075
▁husband	-3076
ficult	-3077
▁section	-3078
▁primary	-3079
40	-3080
▁jud	-3081
▁ball	-3082
▁bur	-3083
ols	-3084
▁Northern	-3085
▁esc	-3086
▁musical	-3087
venue	-3088
▁abs	-3089
▁structure	-3090
lying	-3091
▁independent	-3092
▁names	-3093
▁temper	-3094
lor	-3095
▁prote	-3096
▁Pacific	-3097
▁dram	-3098
▁associated	-3099
▁Ann	-3100
▁police	-3101
▁Italy	-3102
▁Mic	-3103
▁Mur	-3104
▁2001	-3105
ye	-3106
▁2002	-3107
▁sil	-3108
see	-3109
ift	-3110
▁scient	-3111
▁Martin	-3112
heast	-3113
ado	-3114
ano	-3115
▁document	-3116
▁exam	-3117
▁sports	-3118
▁Polit	-3119
▁science	-3120
▁writers	-3121
▁quest	-3122
▁minor	-3123
oys	-3124
hire	-3125
▁concern	-3126
▁ever	-3127
▁difficult	-3128
erve	-3129
▁Valley	-3130
▁thought	-3131
▁Awards	-3132
▁stop	-3133
▁Off	-3134
▁0	-3135
▁celeb	-3136
aled	-3137
▁caused	-3138
▁future	-3139
▁Radio	-3140
▁deal	-3141
▁earlier	-3142
▁Commission	-3143
▁schol	-3144
uated	-3145
▁Living	-3146
▁referred	-3147
uth	-3148
vey	-3149
yr	-3150
▁Mill	-3151
▁norm	-3152
▁Ill	-3153
▁text	-3154
ario	-3155
▁placed	-3156
▁cred	-3157
aches	-3158
▁hor	-3159
▁che	-3160
▁league	-3161
▁soon	-3162
▁candid	-3163
▁How	-3164
▁debut	-3165
ala	-3166
▁sum	-3167
▁concept	-3168
▁writing	-3169
▁whom	-3170
▁soft	-3171
inct	-3172
oo	-3173
▁(2	-3174
▁Over	-3175
American	-3176
isions	-3177
▁plant	-3178
▁related	-3179
▁farm	-3180
oral	-3181
▁Hon	-3182
▁Civil	-3183
▁Dou	-3184
▁Fred	-3185
▁Follow	-3186
eds	-3187
arter	-3188
▁Bus	-3189
asket	-3190
ether	-3191
▁personal	-3192
▁Out	-3193
ublican	-3194
▁Georg	-3195
▁rate	-3196
vention	-3197
▁economic	-3198
▁prob	-3199
ulture	-3200
▁Major	-3201
▁Secret	-3202
cul	-3203
▁III	-3204
▁dig	-3205
▁birth	-3206
▁lines	-3207
▁Jim	-3208
▁Notes	-3209
▁closed	-3210
▁“	-3211
▁majority	-3212
▁colon	-3213
▁Haw	-3214
▁Vill	-3215
uffer	-3216
den	-3217
▁changes	-3218
▁cities	-3219
▁highest	-3220
▁bank	-3221
▁particular	-3222
▁trade	-3223
ready	-3224
▁40	-3225
▁break	-3226
▁runs	-3227
ider	-3228
bon	-3229
▁mach	-3230
▁larger	-3231
▁Ol	-3232
hab	-3233
▁journal	-3234
▁males	-3235
80	-3236
▁2012	-3237
roll	-3238
▁Techn	-3239
▁cases	-3240
▁surround	-3241
▁Song	-3242
▁Rel	-3243
change	-3244
aring	-3245
▁sequ	-3246
itt	-3247
plement	-3248
ylvan	-3249
▁politician	-3250
▁Earth	-3251
▁mur	-3252
▁instr	-3253
▁3,	-3254
▁Mr	-3255
▁Cross	-3256
▁individual	-3257
win	-3258
uman	-3259
▁awarded	-3260
▁college	-3261
▁sus	-3262
▁System	-3263
▁limited	-3264
▁Edward	-3265
▁gra	-3266
▁arm	-3267
▁location	-3268
▁additional	-3269
▁settle	-3270
▁behind	-3271
▁parent	-3272
oma	-3273
ands	-3274
▁religious	-3275
azz	-3276
▁Queen	-3277
ola	-3278
▁Sil	-3279
-2	-3280
▁equip	-3281
▁Line	-3282
▁chart	-3283
fit	-3284
▁Later	-3285
▁nomin	-3286
▁previously	-3287
▁Following	-3288
▁anti	-3289
▁Inc	-3290
ss	-3291
▁prop	-3292
▁log	-3293
▁construct	-3294
▁altern	-3295
ault	-3296
▁:	-3297
▁forms	-3298
▁Post	-3299
▁Sk	-3300
▁particularly	-3301
▁plat	-3302
▁Service	-3303
amm	-3304
itiz	-3305
▁towards	-3306
▁bound	-3307
▁look	-3308
▁longer	-3309
bury	-3310
▁reve	-3311
▁summer	-3312
▁Rout	-3313
bur	-3314
▁centre	-3315
▁famous	-3316
▁integ	-3317
igan	-3318
▁energy	-3319
peror	-3320
▁magazine	-3321
▁nar	-3322
▁Dis	-3323
ils	-3324
ulf	-3325
▁Bet	-3326
▁edition	-3327
▁consider	-3328
▁Den	-3329
istics	-3330
▁evidence	-3331
▁prison	-3332
▁That	-3333
ibl	-3334
inary	-3335
▁emer	-3336
rast	-3337
▁route	-3338
reater	-3339
▁ended	-3340
use	-3341
▁Mexico	-3342
▁philos	-3343
▁Science	-3344
▁taking	-3345
▁Florida	-3346
▁Gall	-3347
ersey	-3348
mark	-3349
embly	-3350
ify	-3351
▁come	-3352
▁winn	-3353
▁Rh	-3354
▁Pan	-3355
▁Series	-3356
▁move	-3357
ylvania	-3358
▁Jack	-3359
earch	-3360
▁lived	-3361
▁Are	-3362
▁pie	-3363
▁Prince	-3364
za	-3365
▁influence	-3366
inet	-3367
▁amount	-3368
▁McC	-3369
▁grand	-3370
ote	-3371
▁Jer	-3372
▁housing	-3373
▁results	-3374
▁percent	-3375
▁meaning	-3376
ura	-3377
enth	-3378
▁active	-3379
▁western	-3380
▁Southern	-3381
▁Oh	-3382
▁fle	-3383
▁univers	-3384
▁dom	-3385
▁university	-3386
▁Elect	-3387
ultural	-3388
rem	-3389
atively	-3390
▁vir	-3391
▁Long	-3392
▁environment	-3393
rief	-3394
▁du	-3395
▁newsp	-3396
onn	-3397
▁lay	-3398
▁Library	-3399
▁Ros	-3400
ams	-3401
▁Tour	-3402
onic	-3403
▁ships	-3404
ban	-3405
▁Arab	-3406
▁believed	-3407
▁Latin	-3408
▁issues	-3409
▁already	-3410
▁appears	-3411
▁earn	-3412
▁som	-3413
▁suffer	-3414
▁bene	-3415
▁practice	-3416
▁29	-3417
▁cust	-3418
2),	-3419
▁Middle	-3420
adium	-3421
▁interview	-3422
▁unit	-3423
▁emb	-3424
istan	-3425
▁money	-3426
nel	-3427
▁$1	-3428
with	-3429
▁establishments	-3430
▁Arts	-3431
▁Football	-3432
▁Social	-3433
▁railway	-3434
NA	-3435
▁Sol	-3436
iance	-3437
▁wood	-3438
▁degree	-3439
▁legal	-3440
▁2010,	-3441
▁remains	-3442
ysis	-3443
ras	-3444
▁rap	-3445
▁Bob	-3446
izing	-3447
▁federal	-3448
anded	-3449
iant	-3450
▁Ox	-3451
▁ens	-3452
onse	-3453
▁fourth	-3454
▁issue	-3455
▁better	-3456
▁News	-3457
▁numbers	-3458
▁sen	-3459
▁keep	-3460
▁regular	-3461
▁lack	-3462
▁Jud	-3463
▁drop	-3464
▁artist	-3465
▁eth	-3466
▁studio	-3467
▁Found	-3468
▁complete	-3469
arriage	-3470
▁contains	-3471
▁owned	-3472
▁alumni	-3473
▁fif	-3474
ette	-3475
▁45	-3476
▁Dutch	-3477
▁1999	-3478
stant	-3479
rying	-3480
irit	-3481
▁Loc	-3482
▁approximately	-3483
▁date	-3484
▁Mat	-3485
▁Win	-3486
▁Prog	-3487
70	-3488
▁numerous	-3489
▁increase	-3490
▁programs	-3491
▁today	-3492
▁languages	-3493
zil	-3494
ady	-3495
bl	-3496
▁Camb	-3497
state	-3498
▁Bor	-3499
▁indic	-3500
▁(193	-3501
▁source	-3502
▁Book	-3503
▁launched	-3504
selves	-3505
▁prior	-3506
▁themselves	-3507
▁Bre	-3508
▁BBC	-3509
▁value	-3510
▁Wind	-3511
asy	-3512
▁ran	-3513
▁More	-3514
▁Spr	-3515
▁Sun	-3516
▁Direct	-3517
▁surface	-3518
▁organization	-3519
irm	-3520
ato	-3521
▁mem	-3522
mitted	-3523
awa	-3524
▁spread	-3525
▁seat	-3526
▁Committee	-3527
itors	-3528
▁require	-3529
iano	-3530
▁screen	-3531
▁division	-3532
asketball	-3533
▁Main	-3534
▁investig	-3535
izations	-3536
▁(194	-3537
▁operated	-3538
▁always	-3539
▁Av	-3540
▁Wales	-3541
▁Penns	-3542
fect	-3543
▁mechan	-3544
▁separate	-3545
▁residents	-3546
▁coach	-3547
▁Scottish	-3548
▁defeated	-3549
ties	-3550
▁legisl	-3551
▁1950	-3552
–0	-3553
▁immedi	-3554
mentary	-3555
spe	-3556
▁specific	-3557
tained	-3558
▁Sports	-3559
▁might	-3560
▁mostly	-3561
cing	-3562
▁vocals	-3563
▁=	-3564
▁Times	-3565
▁Gar	-3566
iled	-3567
isk	-3568
▁claimed	-3569
▁Mos	-3570
▁hours	-3571
igg	-3572
▁Another	-3573
pected	-3574
▁ord	-3575
▁news	-3576
▁Hel	-3577
gypt	-3578
▁Asian	-3579
▁saf	-3580
▁status	-3581
2).	-3582
▁Republican	-3583
▁finished	-3584
▁quick	-3585
▁currently	-3586
▁words	-3587
3),	-3588
▁foreign	-3589
▁Lee	-3590
▁box	-3591
ta	-3592
▁prem	-3593
▁producer	-3594
▁31	-3595
▁month	-3596
▁cause	-3597
▁ess	-3598
4),	-3599
▁Po	-3600
isco	-3601
▁property	-3602
▁Pennsylvania	-3603
▁So	-3604
uff	-3605
▁noted	-3606
▁tradition	-3607
▁Death	-3608
▁Under	-3609
▁create	-3610
uan	-3611
▁forced	-3612
standing	-3613
imum	-3614
6),	-3615
▁Carolina	-3616
▁Broad	-3617
▁ver	-3618
▁appearance	-3619
▁mission	-3620
▁Sat	-3621
wide	-3622
▁estim	-3623
▁passed	-3624
▁Airport	-3625
▁proposed	-3626
▁supported	-3627
▁length	-3628
▁remain	-3629
oring	-3630
▁Tim	-3631
▁Spain	-3632
▁Eastern	-3633
▁Cle	-3634
wer	-3635
▁don	-3636
ares	-3637
▁2013	-3638
5),	-3639
▁discuss	-3640
▁prevent	-3641
▁give	-3642
▁Polish	-3643
▁Love	-3644
uries	-3645
▁policy	-3646
8),	-3647
stra	-3648
▁annual	-3649
▁pen	-3650
▁student	-3651
▁Tri	-3652
▁Mot	-3653
▁running	-3654
▁increasing	-3655
7),	-3656
▁Ep	-3657
▁rule	-3658
ropol	-3659
▁Wal	-3660
▁financial	-3661
▁elements	-3662
▁sea	-3663
resp	-3664
▁dise	-3665
▁cle	-3666
▁accom	-3667
▁staff	-3668
SA	-3669
▁Township	-3670
▁focus	-3671
11	-3672
bre	-3673
▁Tre	-3674
▁complet	-3675
itation	-3676
urban	-3677
mond	-3678
▁listed	-3679
ables	-3680
▁Television	-3681
▁Young	-3682
cel	-3683
▁chief	-3684
▁Portug	-3685
press	-3686
ansas	-3687
▁Prov	-3688
▁(17	-3689
ledge	-3690
▁opening	-3691
eks	-3692
▁Men	-3693
agn	-3694
▁Sea	-3695
▁Russia	-3696
▁multiple	-3697
gr	-3698
▁qual	-3699
▁Jul	-3700
▁Egypt	-3701
▁draw	-3702
ees	-3703
rang	-3704
▁Census	-3705
▁troops	-3706
igr	-3707
isation	-3708
▁Scotland	-3709
▁shot	-3710
▁2007,	-3711
▁Women	-3712
▁2006,	-3713
▁Int	-3714
▁computer	-3715
▁studies	-3716
▁threat	-3717
la	-3718
va	-3719
▁disp	-3720
oston	-3721
shire	-3722
▁course	-3723
▁hot	-3724
▁Jersey	-3725
▁variety	-3726
▁becoming	-3727
aters	-3728
kins	-3729
▁chem	-3730
▁Jo	-3731
emorial	-3732
▁i	-3733
▁secret	-3734
thlet	-3735
▁dire	-3736
▁latter	-3737
▁initially	-3738
acing	-3739
ockey	-3740
oir	-3741
▁Lab	-3742
▁1998	-3743
▁Fer	-3744
▁2008,	-3745
mission	-3746
BS	-3747
▁heavy	-3748
▁Base	-3749
▁commission	-3750
▁Brazil	-3751
▁manager	-3752
ua	-3753
▁mention	-3754
house	-3755
▁train	-3756
▁necess	-3757
▁Route	-3758
▁confl	-3759
▁2014	-3760
▁goal	-3761
▁decision	-3762
rative	-3763
▁4,	-3764
▁incorpor	-3765
▁domin	-3766
▁offered	-3767
▁historical	-3768
anced	-3769
▁problems	-3770
iana	-3771
▁academ	-3772
▁bass	-3773
pre	-3774
▁alone	-3775
▁step	-3776
▁Despite	-3777
▁Game	-3778
▁Time	-3779
arden	-3780
▁detail	-3781
obal	-3782
▁Governor	-3783
pose	-3784
▁Democratic	-3785
▁response	-3786
▁Bas	-3787
▁symb	-3788
▁shown	-3789
ellig	-3790
ental	-3791
itude	-3792
▁ancient	-3793
▁typically	-3794
▁Lu	-3795
▁technology	-3796
▁conditions	-3797
omer	-3798
▁Step	-3799
FA	-3800
▁Gen	-3801
▁Columbia	-3802
90	-3803
ipl	-3804
ech	-3805
imin	-3806
▁woman	-3807
▁2009,	-3808
ronic	-3809
▁psych	-3810
▁Transport	-3811
▁directly	-3812
▁Stan	-3813
▁Creek	-3814
▁activities	-3815
icians	-3816
amily	-3817
▁conv	-3818
▁Gal	-3819
▁pil	-3820
iring	-3821
▁Care	-3822
▁recording	-3823
▁Boston	-3824
▁types	-3825
▁spent	-3826
▁Econom	-3827
▁Conserv	-3828
▁mile	-3829
rice	-3830
▁continu	-3831
▁1997	-3832
ously	-3833
ao	-3834
▁Islam	-3835
ella	-3836
▁Hot	-3837
overs	-3838
add	-3839
▁181	-3840
▁adj	-3841
▁Fe	-3842
▁merg	-3843
rown	-3844
▁exhib	-3845
▁Di	-3846
▁crew	-3847
▁batt	-3848
▁Their	-3849
▁Board	-3850
▁passeng	-3851
▁management	-3852
▁dyn	-3853
▁targ	-3854
ophy	-3855
▁Luc	-3856
▁Big	-3857
▁display	-3858
▁failed	-3859
cean	-3860
FL	-3861
▁brief	-3862
▁elev	-3863
▁Films	-3864
▁180	-3865
ken	-3866
▁weap	-3867
▁speed	-3868
ips	-3869
▁Jones	-3870
▁cell	-3871
▁Asia	-3872
▁carried	-3873
▁nuc	-3874
▁eastern	-3875
rif	-3876
▁recent	-3877
▁Festival	-3878
▁Chief	-3879
ga	-3880
▁Profess	-3881
▁wide	-3882
▁Bow	-3883
airman	-3884
▁1996	-3885
▁effects	-3886
▁nature	-3887
▁ded	-3888
▁deliver	-3889
unction	-3890
▁council	-3891
▁Sa	-3892
BA	-3893
▁Williams	-3894
▁2015	-3895
▁Ont	-3896
▁exc	-3897
▁takes	-3898
▁Mid	-3899
▁nearly	-3900
uge	-3901
iter	-3902
▁Ohio	-3903
▁2000,	-3904
astic	-3905
▁enough	-3906
iest	-3907
▁parties	-3908
▁2005,	-3909
▁Little	-3910
▁fort	-3911
–201	-3912
▁Cam	-3913
▁nation	-3914
▁Person	-3915
▁2016	-3916
▁Blue	-3917
▁murder	-3918
war	-3919
▁Ha	-3920
▁Research	-3921
ih	-3922
▁Jean	-3923
▁Four	-3924
▁vote	-3925
▁spl	-3926
▁Jac	-3927
▁smaller	-3928
emporary	-3929
ny	-3930
▁Orig	-3931
▁insp	-3932
▁Jes	-3933
▁Bank	-3934
▁society	-3935
▁provides	-3936
▁produce	-3937
▁Arg	-3938
isters	-3939
1),	-3940
km	-3941
▁Of	-3942
▁poor	-3943
arters	-3944
▁brand	-3945
▁Add	-3946
▁diss	-3947
▁Tw	-3948
▁2011,	-3949
▁done	-3950
▁commonly	-3951
▁Kent	-3952
▁movie	-3953
etts	-3954
▁Show	-3955
stein	-3956
▁Johnson	-3957
▁Inf	-3958
▁Budd	-3959
▁Lo	-3960
poration	-3961
rich	-3962
▁whether	-3963
▁Hung	-3964
▁winning	-3965
▁attended	-3966
▁Water	-3967
▁weeks	-3968
▁makes	-3969
▁(3	-3970
▁likely	-3971
▁job	-3972
▁Oxford	-3973
▁except	-3974
▁entered	-3975
▁Military	-3976
▁Univers	-3977
▁Members	-3978
▁Charl	-3979
▁18,	-3980
▁MP	-3981
▁Both	-3982
umber	-3983
ricket	-3984
wan	-3985
▁Native	-3986
irds	-3987
icted	-3988
▁bomb	-3989
▁middle	-3990
imb	-3991
aily	-3992
ias	-3993
▁citiz	-3994
▁lic	-3995
▁Top	-3996
▁Revolution	-3997
ried	-3998
ackson	-3999
▁Max	-4000
▁Albert	-4001
▁prin	-4002
▁Ontario	-4003
▁products	-4004
▁Kenn	-4005
respond	-4006
illed	-4007
▁Alexander	-4008
▁Enter	-4009
▁remaining	-4010
achus	-4011
▁laws	-4012
anguage	-4013
▁Theatre	-4014
▁reason	-4015
▁autom	-4016
▁happ	-4017
▁levels	-4018
uate	-4019
adel	-4020
perial	-4021
rupt	-4022
▁code	-4023
▁metal	-4024
▁Coast	-4025
▁paper	-4026
▁officer	-4027
agon	-4028
▁Rog	-4029
▁Prime	-4030
met	-4031
▁blood	-4032
▁turned	-4033
9),	-4034
akers	-4035
▁idea	-4036
velopment	-4037
▁era	-4038
▁marriage	-4039
▁Os	-4040
▁Ott	-4041
▁medical	-4042
ydro	-4043
▁subsequently	-4044
▁Hor	-4045
▁Three	-4046
▁Francisco	-4047
▁inn	-4048
mir	-4049
range	-4050
▁Ham	-4051
abeth	-4052
king	-4053
▁operation	-4054
▁problem	-4055
anda	-4056
▁leaving	-4057
▁houses	-4058
▁actors	-4059
▁Good	-4060
isher	-4061
▁Ur	-4062
▁Popul	-4063
);	-4064
▁ult	-4065
–199	-4066
▁ang	-4067
gian	-4068
▁4.	-4069
▁girl	-4070
▁platform	-4071
▁officers	-4072
▁demon	-4073
▁Jackson	-4074
▁presented	-4075
AC	-4076
▁Matt	-4077
▁letter	-4078
▁1920	-4079
▁rat	-4080
▁Web	-4081
▁Games	-4082
burgh	-4083
▁growth	-4084
▁Disc	-4085
vement	-4086
▁block	-4087
▁collect	-4088
hat	-4089
▁Bir	-4090
onto	-4091
▁victory	-4092
▁...	-4093
▁Tod	-4094
stitution	-4095
▁Bern	-4096
▁represented	-4097
undred	-4098
inois	-4099
acher	-4100
▁whole	-4101
▁thr	-4102
antry	-4103
▁Ele	-4104
▁primarily	-4105
▁prec	-4106
▁Ver	-4107
▁Duke	-4108
more	-4109
uten	-4110
▁Str	-4111
▁Centre	-4112
▁conver	-4113
▁2012,	-4114
▁Earl	-4115
osh	-4116
▁unc	-4117
▁nearby	-4118
▁Avenue	-4119
▁Ray	-4120
▁Wild	-4121
▁Tro	-4122
▁Van	-4123
▁discovered	-4124
ums	-4125
▁Engine	-4126
▁Wall	-4127
▁mainly	-4128
▁despite	-4129
hemat	-4130
▁sources	-4131
▁campus	-4132
▁Sand	-4133
In	-4134
▁Kong	-4135
▁label	-4136
▁models	-4137
▁Night	-4138
▁Det	-4139
▁clear	-4140
▁nine	-4141
▁helped	-4142
▁Bul	-4143
▁experience	-4144
▁Tem	-4145
▁oil	-4146
-3	-4147
gar	-4148
▁pressure	-4149
▁Way	-4150
▁article	-4151
▁compl	-4152
▁!	-4153
▁widely	-4154
▁love	-4155
AF	-4156
▁going	-4157
▁scored	-4158
▁Ul	-4159
▁Special	-4160
▁intended	-4161
▁charg	-4162
umed	-4163
▁border	-4164
▁1995	-4165
▁competition	-4166
▁sister	-4167
nic	-4168
▁counter	-4169
▁succeed	-4170
▁179	-4171
achusetts	-4172
▁gas	-4173
▁acquired	-4174
▁1994	-4175
▁Victoria	-4176
▁24,	-4177
▁sal	-4178
▁gun	-4179
▁behav	-4180
▁Geography	-4181
▁initial	-4182
▁elections	-4183
▁stories	-4184
▁bring	-4185
▁basis	-4186
▁forest	-4187
apers	-4188
▁Pers	-4189
thur	-4190
yer	-4191
▁Official	-4192
▁towns	-4193
▁Illinois	-4194
hy	-4195
▁records	-4196
can	-4197
itted	-4198
▁controvers	-4199
aven	-4200
▁Child	-4201
▁Olympic	-4202
▁raised	-4203
chester	-4204
▁mic	-4205
▁Mah	-4206
▁bridge	-4207
ropolitan	-4208
▁largely	-4209
▁Massachusetts	-4210
▁Ell	-4211
▁meeting	-4212
▁province	-4213
▁issued	-4214
▁Also	-4215
▁kind	-4216
iro	-4217
▁protect	-4218
▁path	-4219
▁Corn	-4220
▁Michigan	-4221
▁highly	-4222
▁flight	-4223
▁Station	-4224
ev	-4225
▁182	-4226
▁Home	-4227
ening	-4228
▁extended	-4229
▁wanted	-4230
▁color	-4231
▁stay	-4232
▁asked	-4233
▁chall	-4234
▁adopted	-4235
▁voice	-4236
▁magn	-4237
▁finally	-4238
▁cer	-4239
▁coin	-4240
▁replace	-4241
▁double	-4242
▁removed	-4243
sk	-4244
▁Eliz	-4245
▁physical	-4246
illa	-4247
▁Islands	-4248
ivity	-4249
▁Rome	-4250
▁Office	-4251
▁Prot	-4252
obile	-4253
▁plans	-4254
inger	-4255
▁Sund	-4256
▁reform	-4257
▁Philipp	-4258
▁card	-4259
omy	-4260
down	-4261
▁responsible	-4262
▁dra	-4263
nam	-4264
ulated	-4265
▁Treat	-4266
▁serve	-4267
ressive	-4268
▁categ	-4269
▁Organ	-4270
▁br	-4271
▁divided	-4272
no	-4273
▁Sar	-4274
alle	-4275
▁drug	-4276
encies	-4277
▁arrest	-4278
▁our	-4279
▁Arm	-4280
▁software	-4281
▁communities	-4282
▁told	-4283
▁museum	-4284
illy	-4285
ety	-4286
▁5,	-4287
▁Muslim	-4288
▁Common	-4289
ón	-4290
▁electric	-4291
▁Cy	-4292
▁Field	-4293
ession	-4294
▁editor	-4295
duce	-4296
▁1992	-4297
▁Senate	-4298
▁versions	-4299
):	-4300
▁implement	-4301
▁episodes	-4302
▁tracks	-4303
cles	-4304
▁Mov	-4305
▁operating	-4306
▁Jeff	-4307
▁2013,	-4308
▁Ly	-4309
oura	-4310
▁face	-4311
ully	-4312
▁Andrew	-4313
▁$2	-4314
▁soldiers	-4315
ograp	-4316
▁Far	-4317
col	-4318
▁cultural	-4319
▁correspond	-4320
▁here	-4321
▁Summer	-4322
▁potential	-4323
▁strateg	-4324
▁Sever	-4325
asty	-4326
▁foot	-4327
▁quickly	-4328
▁racial	-4329
ati	-4330
▁minutes	-4331
▁carri	-4332
▁heart	-4333
▁Bridge	-4334
▁Boy	-4335
▁composed	-4336
iated	-4337
ancy	-4338
ima	-4339
▁share	-4340
emy	-4341
45	-4342
▁Jr	-4343
which	-4344
▁2017	-4345
▁Us	-4346
▁neighbor	-4347
▁Toronto	-4348
▁About	-4349
▁consists	-4350
▁score	-4351
▁Ok	-4352
▁Ca	-4353
▁Ret	-4354
▁£	-4355
▁territory	-4356
▁cars	-4357
worth	-4358
▁starting	-4359
▁Bure	-4360
▁direction	-4361
AT	-4362
▁Federal	-4363
itage	-4364
▁someone	-4365
▁5.	-4366
▁Secretary	-4367
▁peak	-4368
▁serving	-4369
▁Back	-4370
▁honor	-4371
▁ability	-4372
▁Georgia	-4373
▁leaders	-4374
ampion	-4375
ube	-4376
ighter	-4377
▁Corps	-4378
▁Die	-4379
▁Viet	-4380
▁Hong	-4381
bec	-4382
ocks	-4383
▁Fle	-4384
▁channel	-4385
class	-4386
▁Conf	-4387
▁Form	-4388
▁arrived	-4389
▁championship	-4390
oud	-4391
▁End	-4392
▁Pen	-4393
rane	-4394
bed	-4395
▁equipment	-4396
▁Mu	-4397
▁Assembly	-4398
▁repe	-4399
▁renamed	-4400
▁online	-4401
▁Dev	-4402
▁capac	-4403
▁greater	-4404
ternet	-4405
▁collabor	-4406
oned	-4407
orph	-4408
imal	-4409
ologist	-4410
oles	-4411
▁question	-4412
▁flag	-4413
500	-4414
aging	-4415
▁Lew	-4416
▁Highway	-4417
▁needed	-4418
12	-4419
▁ordered	-4420
mas	-4421
▁Cat	-4422
▁1993	-4423
edom	-4424
▁scene	-4425
▁defin	-4426
▁becomes	-4427
75	-4428
▁conne	-4429
▁room	-4430
onents	-4431
▁controll	-4432
▁officially	-4433
▁literature	-4434
▁concent	-4435
ading	-4436
teen	-4437
mann	-4438
▁Medal	-4439
▁liber	-4440
▁sens	-4441
gu	-4442
▁resist	-4443
▁$3	-4444
▁plays	-4445
▁ut	-4446
▁Joe	-4447
ictional	-4448
▁Represent	-4449
▁von	-4450
▁constructed	-4451
▁vari	-4452
▁Pak	-4453
▁rare	-4454
▁Build	-4455
▁defined	-4456
wa	-4457
▁dead	-4458
▁comedy	-4459
▁township	-4460
▁Poland	-4461
▁streng	-4462
▁2018	-4463
▁treatment	-4464
▁continue	-4465
▁deep	-4466
ador	-4467
▁descent	-4468
▁Stephen	-4469
▁2004,	-4470
▁miles	-4471
ione	-4472
▁parents	-4473
▁Writ	-4474
ca	-4475
▁industrial	-4476
wick	-4477
▁Iran	-4478
▁newspaper	-4479
▁Minn	-4480
ims	-4481
▁Health	-4482
▁2014,	-4483
stone	-4484
▁municipality	-4485
ieuten	-4486
onent	-4487
iger	-4488
iced	-4489
light	-4490
▁compared	-4491
▁fa	-4492
▁Books	-4493
▁featuring	-4494
▁distinct	-4495
▁estimated	-4496
▁Harris	-4497
olved	-4498
▁contact	-4499
ansion	-4500
rect	-4501
thing	-4502
▁dial	-4503
enty	-4504
yal	-4505
▁Les	-4506
rical	-4507
▁notable	-4508
writer	-4509
▁native	-4510
▁administration	-4511
orning	-4512
▁therefore	-4513
▁bor	-4514
▁Elizabeth	-4515
een	-4516
▁Card	-4517
▁Ram	-4518
onia	-4519
▁cat	-4520
▁Ash	-4521
▁Family	-4522
▁activity	-4523
▁Jews	-4524
▁impact	-4525
▁destroyed	-4526
lines	-4527
edd	-4528
▁got	-4529
▁Coll	-4530
AR	-4531
▁resulting	-4532
▁Bell	-4533
rate	-4534
enes	-4535
▁ast	-4536
ennis	-4537
▁Chap	-4538
▁Emperor	-4539
▁max	-4540
ging	-4541
▁cannot	-4542
▁60	-4543
ouri	-4544
▁leave	-4545
▁Head	-4546
icks	-4547
vis	-4548
▁lif	-4549
▁planned	-4550
ulty	-4551
inem	-4552
▁tourn	-4553
▁Bec	-4554
▁approach	-4555
▁Notable	-4556
▁inhab	-4557
15	-4558
▁Modern	-4559
hew	-4560
sen	-4561
▁Development	-4562
▁Test	-4563
–2	-4564
▁saying	-4565
usion	-4566
▁Space	-4567
▁distribution	-4568
▁graph	-4569
▁Bab	-4570
ogue	-4571
▁conserv	-4572
▁Corporation	-4573
▁reduced	-4574
▁agreed	-4575
▁municipal	-4576
aka	-4577
▁retired	-4578
▁scholars	-4579
▁Fox	-4580
▁disease	-4581
▁Power	-4582
ishes	-4583
adelph	-4584
oration	-4585
▁organizations	-4586
orship	-4587
▁1930	-4588
▁ice	-4589
CC	-4590
▁Team	-4591
▁think	-4592
aded	-4593
▁peace	-4594
▁sched	-4595
▁dut	-4596
lers	-4597
▁programming	-4598
▁2015,	-4599
▁yet	-4600
quarters	-4601
▁agric	-4602
▁regional	-4603
▁Fair	-4604
uting	-4605
eld	-4606
▁selected	-4607
izes	-4608
▁Journal	-4609
▁covered	-4610
▁rules	-4611
▁har	-4612
ricts	-4613
▁Tay	-4614
▁Cambridge	-4615
▁1991	-4616
▁Justice	-4617
▁attract	-4618
▁Wars	-4619
▁security	-4620
▁Rom	-4621
▁musicians	-4622
▁structures	-4623
▁Bureau	-4624
▁prominent	-4625
▁minister	-4626
▁shoot	-4627
▁actually	-4628
▁measure	-4629
▁Att	-4630
▁subs	-4631
▁facilities	-4632
18	-4633
▁true	-4634
▁Bibl	-4635
ora	-4636
ko	-4637
▁Historic	-4638
zy	-4639
force	-4640
▁Community	-4641
adelphia	-4642
amber	-4643
ounds	-4644
ibly	-4645
rance	-4646
▁immediately	-4647
ager	-4648
▁Mir	-4649
▁branch	-4650
▁susp	-4651
▁Bal	-4652
▁Olympics	-4653
▁Fire	-4654
▁6,	-4655
▁fiction	-4656
▁corn	-4657
▁Prize	-4658
▁Independ	-4659
▁uns	-4660
▁Rod	-4661
yond	-4662
OS	-4663
yan	-4664
ented	-4665
▁simply	-4666
ixed	-4667
itled	-4668
▁suggested	-4669
▁paint	-4670
▁analysis	-4671
▁blue	-4672
▁seasons	-4673
▁Wilson	-4674
▁Band	-4675
inity	-4676
▁Arthur	-4677
▁singles	-4678
▁personnel	-4679
ugby	-4680
▁favor	-4681
▁declared	-4682
▁Mike	-4683
▁Ira	-4684
▁sail	-4685
rics	-4686
▁Atlantic	-4687
▁Human	-4688
▁Swedish	-4689
amin	-4690
cluding	-4691
▁(192	-4692
▁pra	-4693
osing	-4694
▁+	-4695
▁fr	-4696
▁overs	-4697
▁goals	-4698
ieutenant	-4699
aling	-4700
▁upper	-4701
▁giving	-4702
▁target	-4703
▁Syd	-4704
▁motor	-4705
▁settlement	-4706
▁probably	-4707
erc	-4708
▁Live	-4709
▁master	-4710
▁Ken	-4711
▁Hind	-4712
▁pack	-4713
▁2016,	-4714
▁baseball	-4715
▁respectively	-4716
▁agreement	-4717
urt	-4718
chen	-4719
▁Guard	-4720
▁accepted	-4721
▁inside	-4722
▁basketball	-4723
▁grew	-4724
elligence	-4725
rence	-4726
osis	-4727
▁withd	-4728
▁resulted	-4729
▁7.	-4730
▁quality	-4731
▁partn	-4732
▁adult	-4733
▁instrument	-4734
▁eas	-4735
▁makeup	-4736
▁Open	-4737
▁friends	-4738
▁hundred	-4739
adron	-4740
▁seats	-4741
grad	-4742
▁presence	-4743
▁pattern	-4744
▁Foundation	-4745
▁image	-4746
▁6.	-4747
▁Publ	-4748
IS	-4749
nce	-4750
▁combined	-4751
▁Because	-4752
▁provin	-4753
▁Daniel	-4754
▁Work	-4755
▁mess	-4756
aped	-4757
▁Hispan	-4758
▁)	-4759
opher	-4760
VD	-4761
▁climate	-4762
▁propos	-4763
▁figure	-4764
▁ven	-4765
ID	-4766
Ar	-4767
▁Golden	-4768
▁Naz	-4769
▁overall	-4770
▁Ven	-4771
▁Jon	-4772
▁belong	-4773
chestra	-4774
▁damage	-4775
▁wear	-4776
▁Ho	-4777
▁Sher	-4778
▁thous	-4779
▁Philadelphia	-4780
▁Supreme	-4781
riate	-4782
▁Berlin	-4783
▁conducted	-4784
▁Light	-4785
▁experiment	-4786
portun	-4787
Th	-4788
▁extra	-4789
▁split	-4790
▁efforts	-4791
▁titles	-4792
▁Beach	-4793
▁recover	-4794
bra	-4795
▁occurred	-4796
▁managed	-4797
uts	-4798
▁sites	-4799
odies	-4800
ething	-4801
▁Dun	-4802
▁citizens	-4803
▁amb	-4804
esota	-4805
uls	-4806
▁god	-4807
▁Ger	-4808
▁Free	-4809
ographic	-4810
▁aband	-4811
▁pal	-4812
▁recon	-4813
▁Prem	-4814
▁stra	-4815
▁creation	-4816
▁rapid	-4817
▁workers	-4818
▁composer	-4819
▁pick	-4820
▁Ba	-4821
▁Gh	-4822
▁perman	-4823
agement	-4824
▁2017,	-4825
inson	-4826
▁urban	-4827
▁mountain	-4828
▁Stat	-4829
sex	-4830
▁frequently	-4831
▁green	-4832
RA	-4833
▁relatively	-4834
▁heav	-4835
▁regions	-4836
pton	-4837
iques	-4838
▁Santa	-4839
▁Girl	-4840
▁contain	-4841
▁CE	-4842
▁cells	-4843
▁hy	-4844
oted	-4845
igen	-4846
▁temperature	-4847
fort	-4848
▁cam	-4849
▁Batt	-4850
▁Lady	-4851
iy	-4852
▁alongside	-4853
▁economy	-4854
icine	-4855
▁Castle	-4856
▁fast	-4857
overty	-4858
▁sales	-4859
▁street	-4860
▁mentioned	-4861
▁pp	-4862
▁critical	-4863
▁captured	-4864
▁1989	-4865
▁gained	-4866
▁ir	-4867
▁pan	-4868
▁2018,	-4869
▁dedicated	-4870
▁slow	-4871
▁Program	-4872
omot	-4873
hens	-4874
▁table	-4875
istered	-4876
▁digital	-4877
▁Minnesota	-4878
▁Cub	-4879
35	-4880
▁Es	-4881
▁knowledge	-4882
dis	-4883
▁charge	-4884
▁studied	-4885
▁Cop	-4886
▁address	-4887
▁cerem	-4888
▁positive	-4889
ederation	-4890
',	-4891
miss	-4892
▁follows	-4893
pass	-4894
▁7,	-4895
▁Uk	-4896
▁Marsh	-4897
▁allows	-4898
▁billion	-4899
▁revealed	-4900
▁Fame	-4901
▁format	-4902
▁termin	-4903
present	-4904
▁distance	-4905
MS	-4906
▁attention	-4907
▁Sydney	-4908
▁Area	-4909
▁comment	-4910
ais	-4911
▁Nether	-4912
▁cart	-4913
▁Color	-4914
▁Hospital	-4915
olid	-4916
16	-4917
▁Each	-4918
▁rot	-4919
▁quarter	-4920
▁Dar	-4921
▁reach	-4922
iot	-4923
ava	-4924
claim	-4925
▁suffered	-4926
▁defeat	-4927
▁Steve	-4928
des	-4929
▁Bat	-4930
ira	-4931
real	-4932
▁1940	-4933
▁machine	-4934
▁prof	-4935
▁script	-4936
▁Media	-4937
▁executive	-4938
▁moving	-4939
unior	-4940
▁Brad	-4941
ić	-4942
estic	-4943
▁royal	-4944
▁surrounding	-4945
▁ox	-4946
▁claims	-4947
erto	-4948
water	-4949
▁35	-4950
kin	-4951
bell	-4952
▁politics	-4953
phy	-4954
gg	-4955
▁Album	-4956
▁bad	-4957
▁Captain	-4958
▁expanded	-4959
▁traffic	-4960
▁Project	-4961
▁Conc	-4962
▁capacity	-4963
iform	-4964
▁parish	-4965
▁Gree	-4966
▁1988	-4967
▁serious	-4968
zer	-4969
▁plants	-4970
▁maintain	-4971
▁2003,	-4972
ennes	-4973
▁Hay	-4974
▁attend	-4975
ela	-4976
▁(4	-4977
▁Sus	-4978
–9	-4979
▁Argent	-4980
-4	-4981
▁Alf	-4982
▁reference	-4983
▁medal	-4984
iat	-4985
▁Business	-4986
▁union	-4987
restling	-4988
▁walk	-4989
▁Lim	-4990
▁applied	-4991
▁couples	-4992
▁fell	-4993
▁feel	-4994
ordin	-4995
▁vehicles	-4996
▁governor	-4997
▁adapt	-4998
▁department	-4999
▁Nations	-5000
struction	-5001
▁starring	-5002
aya	-5003
▁pict	-5004
▁178	-5005
▁academic	-5006
▁classical	-5007
▁flow	-5008
▁allowing	-5009
▁weight	-5010
ker	-5011
CO	-5012
▁purs	-5013
▁stars	-5014
▁Som	-5015
▁consum	-5016
▁trains	-5017
ii	-5018
▁Baron	-5019
▁purchased	-5020
ulpt	-5021
▁identified	-5022
▁labor	-5023
14	-5024
▁Mountain	-5025
▁risk	-5026
▁condition	-5027
▁quant	-5028
▁recomm	-5029
▁comes	-5030
▁methods	-5031
bro	-5032
▁Hy	-5033
"),	-5034
▁Indust	-5035
▁Anth	-5036
▁solo	-5037
▁Baseball	-5038
▁authority	-5039
▁leadership	-5040
wing	-5041
▁content	-5042
▁2019,	-5043
▁Ford	-5044
▁Philip	-5045
▁recently	-5046
▁apart	-5047
▁hospital	-5048
IA	-5049
itzer	-5050
–198	-5051
▁Iraq	-5052
▁Video	-5053
▁drama	-5054
ef	-5055
▁Crit	-5056
▁dark	-5057
▁Forest	-5058
▁spirit	-5059
ifying	-5060
▁pit	-5061
▁slight	-5062
fficient	-5063
▁hop	-5064
▁sexual	-5065
▁granted	-5066
65	-5067
track	-5068
ba	-5069
▁ly	-5070
▁senior	-5071
▁titled	-5072
▁Stand	-5073
▁Short	-5074
uct	-5075
▁candidate	-5076
▁projects	-5077
▁votes	-5078
sey	-5079
▁Before	-5080
▁householder	-5081
formed	-5082
ila	-5083
ja	-5084
▁functions	-5085
ographics	-5086
▁Police	-5087
▁500	-5088
kes	-5089
▁Freder	-5090
▁opportun	-5091
▁felt	-5092
▁Works	-5093
lav	-5094
vest	-5095
awn	-5096
▁portion	-5097
▁normal	-5098
eller	-5099
▁Network	-5100
▁mut	-5101
yt	-5102
ES	-5103
▁Aff	-5104
▁portray	-5105
▁novels	-5106
▁Ari	-5107
ropical	-5108
▁vac	-5109
▁Sweden	-5110
orter	-5111
▁chap	-5112
▁pun	-5113
▁memory	-5114
▁attacks	-5115
▁x	-5116
▁coal	-5117
works	-5118
▁expected	-5119
▁paid	-5120
13	-5121
eding	-5122
▁sense	-5123
64	-5124
▁cab	-5125
▁animals	-5126
▁lives	-5127
▁fifth	-5128
▁poverty	-5129
ption	-5130
ji	-5131
▁centuries	-5132
▁dance	-5133
▁Ast	-5134
▁transferred	-5135
eral	-5136
▁suppl	-5137
▁Der	-5138
▁contrast	-5139
rip	-5140
▁Id	-5141
▁Taylor	-5142
ader	-5143
▁conflict	-5144
▁Several	-5145
▁suggest	-5146
▁enter	-5147
▁Americans	-5148
former	-5149
▁store	-5150
ads	-5151
▁1987	-5152
▁seg	-5153
▁kept	-5154
▁Kir	-5155
▁pet	-5156
▁illust	-5157
▁pop	-5158
▁Walk	-5159
▁mill	-5160
▁opposed	-5161
▁fuel	-5162
▁opposition	-5163
bu	-5164
▁fully	-5165
tters	-5166
▁etc	-5167
▁search	-5168
arp	-5169
▁purpose	-5170
oln	-5171
▁completely	-5172
▁15,	-5173
▁big	-5174
▁hyp	-5175
nes	-5176
▁Est	-5177
▁Like	-5178
outheast	-5179
▁Memorial	-5180
itness	-5181
▁Korea	-5182
▁Hal	-5183
▁arms	-5184
▁net	-5185
EC	-5186
▁joint	-5187
▁Chris	-5188
▁column	-5189
▁gives	-5190
▁Hard	-5191
▁parliament	-5192
▁supply	-5193
▁Conference	-5194
▁recognized	-5195
ois	-5196
▁Netherlands	-5197
ucky	-5198
▁connected	-5199
▁10,	-5200
▁Anton	-5201
▁Ball	-5202
gal	-5203
▁Han	-5204
▁reject	-5205
▁spring	-5206
▁bal	-5207
▁expansion	-5208
▁Buddh	-5209
▁Pu	-5210
▁page	-5211
▁1984	-5212
▁unique	-5213
▁Ak	-5214
▁simple	-5215
▁1986	-5216
▁Turk	-5217
▁refused	-5218
▁necessary	-5219
cont	-5220
position	-5221
▁roll	-5222
▁Pass	-5223
place	-5224
▁Nic	-5225
kee	-5226
edia	-5227
▁firm	-5228
▁Constitution	-5229
▁appearances	-5230
▁forward	-5231
▁Dam	-5232
▁Colon	-5233
esh	-5234
▁tele	-5235
▁12,	-5236
▁Among	-5237
▁institutions	-5238
bourne	-5239
▁8,	-5240
rog	-5241
▁contemporary	-5242
▁powers	-5243
▁Comics	-5244
▁offers	-5245
▁prep	-5246
osen	-5247
17	-5248
iate	-5249
▁marked	-5250
▁Hun	-5251
aska	-5252
▁Director	-5253
▁Master	-5254
▁figures	-5255
▁mis	-5256
▁notes	-5257
▁Greg	-5258
▁hosted	-5259
▁earned	-5260
▁nuclear	-5261
▁bott	-5262
▁mixed	-5263
án	-5264
▁Holly	-5265
▁Barb	-5266
▁vess	-5267
etery	-5268
▁reserv	-5269
▁poll	-5270
▁Nap	-5271
▁Tok	-5272
▁syn	-5273
▁Lewis	-5274
urches	-5275
emetery	-5276
▁wild	-5277
▁Pier	-5278
").	-5279
yes	-5280
▁tree	-5281
cluded	-5282
▁spect	-5283
▁oldest	-5284
▁roles	-5285
▁UN	-5286
ounded	-5287
▁serves	-5288
▁Su	-5289
▁clubs	-5290
arc	-5291
▁Francis	-5292
▁meant	-5293
▁providing	-5294
▁showed	-5295
▁tried	-5296
▁Holy	-5297
▁32	-5298
imens	-5299
▁Spring	-5300
onym	-5301
▁AD	-5302
▁2020,	-5303
▁fellow	-5304
▁Demographics	-5305
▁Harry	-5306
oking	-5307
▁materials	-5308
▁launch	-5309
also	-5310
pet	-5311
wise	-5312
eman	-5313
zech	-5314
▁constitution	-5315
▁Davis	-5316
iling	-5317
ieval	-5318
▁custom	-5319
▁Bad	-5320
▁organized	-5321
▁cong	-5322
▁decre	-5323
una	-5324
▁dog	-5325
▁Hispanic	-5326
▁effective	-5327
▁letters	-5328
han	-5329
▁occasion	-5330
▁suit	-5331
▁subsequent	-5332
phas	-5333
isted	-5334
▁Bru	-5335
▁newly	-5336
▁unknown	-5337
▁IV	-5338
▁Personal	-5339
▁Hart	-5340
▁owner	-5341
▁winter	-5342
▁equival	-5343
▁positions	-5344
▁ranked	-5345
66	-5346
▁founder	-5347
ali	-5348
▁Liberal	-5349
▁Dougl	-5350
▁powerful	-5351
▁cancer	-5352
▁aspect	-5353
▁bra	-5354
▁nob	-5355
▁inspired	-5356
▁Municip	-5357
▁stock	-5358
MA	-5359
▁vehicle	-5360
umes	-5361
▁existing	-5362
▁Doctor	-5363
▁synt	-5364
▁Brook	-5365
▁hydro	-5366
estab	-5367
▁sets	-5368
alion	-5369
▁express	-5370
▁alternative	-5371
▁Mexican	-5372
oes	-5373
▁Prin	-5374
▁Circ	-5375
▁Kansas	-5376
ext	-5377
zo	-5378
▁tim	-5379
▁8.	-5380
▁1985	-5381
▁derived	-5382
▁constant	-5383
▁virt	-5384
▁Abb	-5385
▁things	-5386
▁hands	-5387
▁airport	-5388
atures	-5389
▁secondary	-5390
▁Through	-5391
▁Lind	-5392
▁Missouri	-5393
▁estate	-5394
▁attempted	-5395
▁growing	-5396
osa	-5397
under	-5398
▁seem	-5399
▁tal	-5400
acter	-5401
▁Cab	-5402
▁earth	-5403
▁Technology	-5404
resh	-5405
uese	-5406
incoln	-5407
▁formation	-5408
▁Age	-5409
▁Plan	-5410
▁11,	-5411
▁impl	-5412
heim	-5413
▁Administ	-5414
▁Province	-5415
▁containing	-5416
▁situation	-5417
▁Tony	-5418
▁ec	-5419
▁Sym	-5420
▁receive	-5421
▁continues	-5422
Al	-5423
isms	-5424
▁Gre	-5425
▁attrib	-5426
olt	-5427
▁van	-5428
▁(20	-5429
▁Marc	-5430
▁1983	-5431
pret	-5432
▁religion	-5433
▁Dor	-5434
▁resident	-5435
▁fish	-5436
▁scientific	-5437
▁engineering	-5438
yo	-5439
amilies	-5440
▁Command	-5441
▁underst	-5442
▁Marg	-5443
▁sn	-5444
▁speech	-5445
▁Ocean	-5446
▁formerly	-5447
▁arts	-5448
▁Rem	-5449
anta	-5450
▁Career	-5451
▁acting	-5452
▁trial	-5453
▁(190	-5454
▁tournament	-5455
▁2002,	-5456
▁wa	-5457
▁Christmas	-5458
▁strugg	-5459
ifically	-5460
▁apparent	-5461
▁Leon	-5462
▁Kar	-5463
▁hab	-5464
aming	-5465
▁Roll	-5466
▁says	-5467
▁concert	-5468
mes	-5469
▁begins	-5470
▁Gallery	-5471
irmed	-5472
athan	-5473
▁shop	-5474
iary	-5475
aine	-5476
▁Sab	-5477
▁Tai	-5478
▁DC	-5479
oto	-5480
▁fighting	-5481
▁Political	-5482
▁Brother	-5483
▁Bi	-5484
▁designated	-5485
▁mom	-5486
iny	-5487
iminal	-5488
▁hero	-5489
▁historic	-5490
▁preserv	-5491
▁engines	-5492
▁nort	-5493
▁weapons	-5494
▁professor	-5495
ns	-5496
▁Nob	-5497
▁districts	-5498
iplom	-5499
▁Today	-5500
life	-5501
▁architecture	-5502
▁Brig	-5503
▁Korean	-5504
▁officials	-5505
anger	-5506
▁stone	-5507
▁influenced	-5508
▁2001,	-5509
ée	-5510
▁Pit	-5511
▁background	-5512
▁Kel	-5513
▁library	-5514
▁protection	-5515
▁incorporated	-5516
gn	-5517
▁Li	-5518
ez	-5519
▁Bh	-5520
ancing	-5521
▁Sav	-5522
▁distingu	-5523
▁opp	-5524
▁harm	-5525
▁Former	-5526
apore	-5527
ructure	-5528
▁fleet	-5529
▁Ross	-5530
▁basic	-5531
▁Six	-5532
▁theme	-5533
▁matter	-5534
▁Lincoln	-5535
33	-5536
car	-5537
▁avoid	-5538
gor	-5539
▁folk	-5540
▁drive	-5541
mouth	-5542
▁Eth	-5543
▁Czech	-5544
uther	-5545
▁Stone	-5546
▁exchange	-5547
▁Internet	-5548
▁matches	-5549
TA	-5550
▁equal	-5551
ocated	-5552
▁tend	-5553
▁bow	-5554
▁regul	-5555
cription	-5556
▁settled	-5557
▁mind	-5558
ownt	-5559
▁succeeded	-5560
oured	-5561
▁symbol	-5562
▁refers	-5563
▁sport	-5564
▁Country	-5565
▁seek	-5566
▁enj	-5567
▁affili	-5568
▁floor	-5569
▁Sciences	-5570
▁Dig	-5571
▁Bon	-5572
▁extensive	-5573
▁historian	-5574
iscons	-5575
aret	-5576
▁80	-5577
ambig	-5578
hedral	-5579
book	-5580
aks	-5581
▁volume	-5582
isconsin	-5583
▁attempts	-5584
▁assigned	-5585
SP	-5586
▁versus	-5587
▁classes	-5588
▁negot	-5589
68	-5590
▁USA	-5591
▁Biography	-5592
▁Ta	-5593
law	-5594
▁1982	-5595
▁Regiment	-5596
▁sculpt	-5597
▁177	-5598
▁ring	-5599
onald	-5600
▁Studies	-5601
lyn	-5602
▁winners	-5603
▁signal	-5604
▁failure	-5605
▁bul	-5606
▁Labour	-5607
erse	-5608
▁burn	-5609
▁doub	-5610
▁properties	-5611
▁convers	-5612
▁DVD	-5613
▁promoted	-5614
▁Lt	-5615
'.	-5616
▁compar	-5617
▁fair	-5618
▁wall	-5619
pson	-5620
ilation	-5621
▁Foreign	-5622
▁Prim	-5623
ipe	-5624
▁Portuguese	-5625
▁advant	-5626
▁fields	-5627
▁Wat	-5628
▁buried	-5629
▁fans	-5630
▁Maria	-5631
▁9,	-5632
▁independence	-5633
▁islands	-5634
▁combat	-5635
▁headquarters	-5636
▁something	-5637
▁1979	-5638
Un	-5639
▁retire	-5640
▁rear	-5641
▁Latino	-5642
▁actions	-5643
▁performances	-5644
▁Gord	-5645
▁Entertain	-5646
▁critics	-5647
weight	-5648
▁rise	-5649
▁talk	-5650
▁Tal	-5651
inder	-5652
▁creating	-5653
▁Gram	-5654
▁reign	-5655
▁Bishop	-5656
da	-5657
22	-5658
risis	-5659
▁Cra	-5660
iments	-5661
▁exclus	-5662
▁advert	-5663
igration	-5664
▁Wisconsin	-5665
▁Douglas	-5666
▁younger	-5667
uing	-5668
rec	-5669
▁cho	-5670
rum	-5671
▁dropped	-5672
▁Review	-5673
▁Bang	-5674
▁argued	-5675
▁rob	-5676
▁Ob	-5677
▁Hu	-5678
▁Due	-5679
55	-5680
▁spons	-5681
▁facility	-5682
▁formal	-5683
▁twice	-5684
ashion	-5685
▁cricket	-5686
prise	-5687
▁2005.	-5688
▁ethnic	-5689
▁Railroad	-5690
▁Howard	-5691
agan	-5692
ragon	-5693
▁constitu	-5694
▁Balt	-5695
DP	-5696
aki	-5697
▁crime	-5698
▁ple	-5699
odox	-5700
▁hockey	-5701
unc	-5702
▁Down	-5703
▁Channel	-5704
orders	-5705
▁youth	-5706
ifications	-5707
▁rang	-5708
▁CO	-5709
▁values	-5710
▁coming	-5711
▁Historical	-5712
ruit	-5713
▁piano	-5714
▁Naval	-5715
▁semi	-5716
▁sides	-5717
aud	-5718
rim	-5719
▁Singapore	-5720
67	-5721
▁visit	-5722
▁Colorado	-5723
▁safety	-5724
▁shared	-5725
pir	-5726
illing	-5727
▁engineer	-5728
▁occupied	-5729
▁1981	-5730
▁Quebec	-5731
uration	-5732
▁awards	-5733
▁Cas	-5734
▁Vietnam	-5735
urer	-5736
▁write	-5737
▁comic	-5738
–3	-5739
▁objects	-5740
▁politicians	-5741
▁achieved	-5742
▁copies	-5743
ante	-5744
▁Point	-5745
iversary	-5746
▁audience	-5747
▁internal	-5748
▁flood	-5749
▁belief	-5750
▁vocal	-5751
▁silver	-5752
ects	-5753
acent	-5754
▁resources	-5755
▁Queens	-5756
IC	-5757
▁map	-5758
▁Ts	-5759
▁beyond	-5760
▁1974	-5761
▁acid	-5762
▁Simon	-5763
▁lands	-5764
▁Liter	-5765
–8	-5766
▁generation	-5767
enna	-5768
▁ways	-5769
▁spok	-5770
▁chosen	-5771
–197	-5772
▁iron	-5773
▁Bibliography	-5774
idge	-5775
▁lies	-5776
▁Imperial	-5777
▁feet	-5778
▁boy	-5779
▁pair	-5780
▁visited	-5781
related	-5782
stream	-5783
ambiguation	-5784
▁application	-5785
▁Pakistan	-5786
▁emphas	-5787
▁piece	-5788
▁Thus	-5789
allel	-5790
▁sac	-5791
anning	-5792
▁beat	-5793
▁theore	-5794
akh	-5795
families	-5796
HL	-5797
ennessee	-5798
▁aim	-5799
▁alle	-5800
ito	-5801
utation	-5802
ials	-5803
▁polic	-5804
▁Whit	-5805
aria	-5806
▁Member	-5807
▁Heart	-5808
▁respond	-5809
▁identity	-5810
▁Walter	-5811
aug	-5812
ighth	-5813
▁Manchester	-5814
US	-5815
ami	-5816
▁Sound	-5817
ryst	-5818
alty	-5819
▁Entertainment	-5820
▁flu	-5821
▁Stra	-5822
▁horse	-5823
▁mathemat	-5824
▁reports	-5825
▁publication	-5826
▁Disney	-5827
▁setting	-5828
▁couple	-5829
▁presidential	-5830
▁Low	-5831
▁Sem	-5832
▁storm	-5833
aph	-5834
▁Ker	-5835
haps	-5836
▁Labor	-5837
▁effic	-5838
▁rain	-5839
▁chemical	-5840
▁authorities	-5841
62	-5842
▁Sum	-5843
▁14,	-5844
▁ax	-5845
▁maximum	-5846
▁want	-5847
▁Pict	-5848
▁Dark	-5849
▁accident	-5850
PS	-5851
▁stream	-5852
ears	-5853
▁Tennessee	-5854
▁1968	-5855
uccess	-5856
▁proceed	-5857
▁Stock	-5858
▁Front	-5859
▁Between	-5860
▁Norway	-5861
69	-5862
▁sought	-5863
▁restaur	-5864
▁enemy	-5865
▁rough	-5866
olished	-5867
▁Jesus	-5868
▁Turn	-5869
room	-5870
▁Aud	-5871
▁descript	-5872
▁Morris	-5873
▁Rand	-5874
rees	-5875
▁9.	-5876
lig	-5877
▁1972	-5878
▁Ot	-5879
▁1976	-5880
igrants	-5881
▁pilot	-5882
▁scale	-5883
▁ultimately	-5884
▁daily	-5885
mont	-5886
▁unable	-5887
▁guns	-5888
▁cert	-5889
▁Trib	-5890
▁Hur	-5891
▁alt	-5892
▁Ark	-5893
▁Ut	-5894
mad	-5895
▁Brian	-5896
vard	-5897
gers	-5898
ori	-5899
western	-5900
▁existence	-5901
fall	-5902
uled	-5903
▁limit	-5904
▁vo	-5905
▁micro	-5906
▁adap	-5907
Le	-5908
▁converted	-5909
amilton	-5910
rine	-5911
▁ideas	-5912
▁wealth	-5913
LA	-5914
▁70	-5915
▁approved	-5916
▁Indiana	-5917
eline	-5918
▁Pope	-5919
anga	-5920
▁slightly	-5921
▁inhabit	-5922
▁Non	-5923
anth	-5924
▁cru	-5925
▁global	-5926
unte	-5927
▁decades	-5928
anes	-5929
▁Even	-5930
▁regarded	-5931
▁reflect	-5932
disambiguation	-5933
equ	-5934
▁entitled	-5935
▁trees	-5936
▁railroad	-5937
▁examples	-5938
▁Austria	-5939
illery	-5940
▁proved	-5941
▁Vi	-5942
▁2006.	-5943
▁leaves	-5944
▁greatest	-5945
pool	-5946
▁13,	-5947
stead	-5948
▁16,	-5949
people	-5950
▁rein	-5951
▁Miller	-5952
▁extrem	-5953
fin	-5954
rome	-5955
▁price	-5956
▁occurs	-5957
organ	-5958
otic	-5959
▁neighborhood	-5960
▁principal	-5961
▁agg	-5962
ogy	-5963
iser	-5964
▁journalist	-5965
▁faculty	-5966
▁1978	-5967
aints	-5968
▁narrow	-5969
▁heavily	-5970
▁Moon	-5971
▁bands	-5972
▁10.	-5973
▁Bol	-5974
▁obtained	-5975
63	-5976
udget	-5977
▁earliest	-5978
owntown	-5979
▁hall	-5980
▁winner	-5981
New	-5982
bi	-5983
▁challeng	-5984
▁Mississ	-5985
▁astron	-5986
▁assistant	-5987
▁Jacob	-5988
▁Nick	-5989
alo	-5990
rm	-5991
pat	-5992
▁arrang	-5993
hips	-5994
▁mayor	-5995
▁Stadium	-5996
anna	-5997
▁causes	-5998
▁1975	-5999
▁Though	-6000
▁bought	-6001
▁locomot	-6002
24	-6003
▁behavior	-6004
▁Hollywood	-6005
▁Maryland	-6006
▁broke	-6007
▁acts	-6008
▁Design	-6009
▁Medical	-6010
iants	-6011
▁attacked	-6012
rix	-6013
unct	-6014
▁prime	-6015
▁Rose	-6016
▁employed	-6017
▁advance	-6018
olis	-6019
▁carry	-6020
▁bill	-6021
▁Sunday	-6022
▁advanced	-6023
fe	-6024
▁2007.	-6025
▁Ren	-6026
▁Hou	-6027
▁introduction	-6028
actions	-6029
▁sevent	-6030
ector	-6031
▁documentary	-6032
power	-6033
owa	-6034
▁commander	-6035
▁Week	-6036
▁Greece	-6037
isf	-6038
PA	-6039
▁determined	-6040
▁Story	-6041
Sh	-6042
▁1999,	-6043
▁Mun	-6044
▁Od	-6045
thodox	-6046
▁ending	-6047
oster	-6048
▁negative	-6049
▁opera	-6050
▁ancest	-6051
▁wing	-6052
eler	-6053
▁Serb	-6054
▁guest	-6055
language	-6056
▁Professor	-6057
aga	-6058
▁Local	-6059
▁musician	-6060
je	-6061
▁sle	-6062
▁expressed	-6063
▁Nich	-6064
▁1973	-6065
▁literary	-6066
▁theatre	-6067
▁mm	-6068
▁morning	-6069
▁enjoy	-6070
▁applications	-6071
▁1919	-6072
▁McG	-6073
adow	-6074
▁Hamilton	-6075
entially	-6076
▁locations	-6077
▁contained	-6078
▁fought	-6079
▁exact	-6080
▁recip	-6081
IN	-6082
▁merged	-6083
▁rural	-6084
▁3:	-6085
including	-6086
active	-6087
▁Var	-6088
▁Square	-6089
ques	-6090
▁reduce	-6091
▁Sin	-6092
▁1977	-6093
icit	-6094
▁connection	-6095
▁believe	-6096
▁onto	-6097
▁standards	-6098
▁Gil	-6099
▁toward	-6100
asters	-6101
rete	-6102
▁conqu	-6103
▁festival	-6104
iar	-6105
27	-6106
elve	-6107
urance	-6108
ippi	-6109
48	-6110
▁lake	-6111
▁stadium	-6112
▁champion	-6113
▁poly	-6114
Man	-6115
▁Athlet	-6116
▁myth	-6117
▁association	-6118
▁worldwide	-6119
achel	-6120
▁Representatives	-6121
▁2021	-6122
▁shortly	-6123
set	-6124
▁Final	-6125
▁sons	-6126
▁swe	-6127
▁Jos	-6128
▁1900	-6129
▁twenty	-6130
▁observed	-6131
ré	-6132
▁(189	-6133
gro	-6134
▁Domin	-6135
▁invasion	-6136
▁Son	-6137
▁begin	-6138
▁revolution	-6139
▁Phys	-6140
antasy	-6141
lah	-6142
enge	-6143
oven	-6144
poses	-6145
▁Burn	-6146
▁causing	-6147
▁1969	-6148
▁mel	-6149
▁rom	-6150
▁Wolf	-6151
▁tor	-6152
▁losing	-6153
▁phase	-6154
▁Allen	-6155
ivals	-6156
-5	-6157
▁holds	-6158
▁Author	-6159
ographer	-6160
umin	-6161
hing	-6162
▁mole	-6163
▁Pot	-6164
▁reasons	-6165
▁orders	-6166
leges	-6167
▁Anne	-6168
▁domestic	-6169
▁techniques	-6170
▁rival	-6171
▁capita	-6172
37	-6173
▁maintained	-6174
wegian	-6175
▁Clark	-6176
▁chairman	-6177
38	-6178
▁Frederick	-6179
▁actual	-6180
▁2008.	-6181
aver	-6182
cycl	-6183
▁consec	-6184
▁Connect	-6185
▁bit	-6186
▁administrative	-6187
47	-6188
▁sequence	-6189
▁passenger	-6190
▁300	-6191
▁resistance	-6192
▁reviews	-6193
▁Vis	-6194
▁Hawai	-6195
▁sand	-6196
▁dynasty	-6197
▁Alb	-6198
▁entirely	-6199
▁Places	-6200
▁vent	-6201
▁permanent	-6202
▁tur	-6203
▁Zh	-6204
▁steel	-6205
zz	-6206
ello	-6207
▁motion	-6208
▁Fa	-6209
aly	-6210
▁1971	-6211
▁valley	-6212
elle	-6213
▁pieces	-6214
▁jur	-6215
▁drums	-6216
▁Anc	-6217
▁Silver	-6218
▁shape	-6219
▁equivalent	-6220
▁Il	-6221
▁1967	-6222
issance	-6223
▁Cape	-6224
▁entertain	-6225
ducing	-6226
▁aired	-6227
from	-6228
▁learning	-6229
▁translation	-6230
▁PC	-6231
▁animal	-6232
▁glass	-6233
icts	-6234
▁Cities	-6235
▁villages	-6236
▁Third	-6237
–7	-6238
▁brothers	-6239
▁Islamic	-6240
▁driver	-6241
▁Squadron	-6242
▁device	-6243
iang	-6244
▁confirmed	-6245
uses	-6246
▁Lin	-6247
▁Alan	-6248
▁abandoned	-6249
▁synd	-6250
▁possess	-6251
▁opin	-6252
▁2021,	-6253
roit	-6254
▁(),	-6255
▁auth	-6256
▁2010.	-6257
▁nominated	-6258
▁correct	-6259
▁Territ	-6260
ER	-6261
fully	-6262
hesis	-6263
hess	-6264
▁(5	-6265
raction	-6266
racy	-6267
▁Premier	-6268
▁prepar	-6269
▁Only	-6270
▁Forces	-6271
▁element	-6272
▁Ah	-6273
▁diplom	-6274
▁prefer	-6275
▁Dream	-6276
▁tower	-6277
zen	-6278
ieties	-6279
▁17,	-6280
▁killing	-6281
▁franch	-6282
amples	-6283
▁NFL	-6284
pp	-6285
▁straight	-6286
amic	-6287
▁aid	-6288
▁FI	-6289
▁nick	-6290
▁Well	-6291
▁Now	-6292
▁exerc	-6293
comm	-6294
▁deploy	-6295
28	-6296
FC	-6297
lections	-6298
▁Advent	-6299
▁Oak	-6300
▁cas	-6301
▁25,	-6302
▁agent	-6303
▁Gib	-6304
▁Ministry	-6305
regon	-6306
▁20,	-6307
▁voted	-6308
▁Hug	-6309
▁Village	-6310
▁Hills	-6311
▁footballer	-6312
▁90	-6313
▁plot	-6314
▁spot	-6315
▁height	-6316
osed	-6317
▁controlled	-6318
▁resc	-6319
▁vary	-6320
▁web	-6321
iac	-6322
▁philosophy	-6323
▁Who	-6324
▁performing	-6325
▁alleged	-6326
wich	-6327
▁Bush	-6328
▁Adam	-6329
ook	-6330
▁views	-6331
▁Philippines	-6332
TC	-6333
▁2009.	-6334
▁lot	-6335
▁lyrics	-6336
▁strength	-6337
▁Temple	-6338
▁routes	-6339
▁reaction	-6340
▁contributed	-6341
▁Micro	-6342
▁Kim	-6343
▁taught	-6344
ova	-6345
▁Real	-6346
▁Relig	-6347
Se	-6348
▁Mach	-6349
▁Current	-6350
onder	-6351
-8	-6352
▁Conservative	-6353
▁multi	-6354
ronze	-6355
iders	-6356
cop	-6357
▁racing	-6358
▁Gordon	-6359
▁Transportation	-6360
▁opposite	-6361
▁Ten	-6362
igenous	-6363
inner	-6364
▁Priv	-6365
▁Children	-6366
iner	-6367
▁interpret	-6368
after	-6369
cious	-6370
itionally	-6371
▁Mas	-6372
▁Dick	-6373
▁wave	-6374
▁core	-6375
rowd	-6376
▁ends	-6377
ridges	-6378
▁calls	-6379
cow	-6380
▁strip	-6381
▁committee	-6382
▁incident	-6383
▁Security	-6384
▁easily	-6385
▁heat	-6386
▁Gard	-6387
▁ruled	-6388
arry	-6389
▁developing	-6390
▁Ec	-6391
▁returning	-6392
▁needs	-6393
▁Pop	-6394
olas	-6395
▁Norwegian	-6396
▁choice	-6397
44	-6398
▁Bos	-6399
▁depend	-6400
▁captain	-6401
bar	-6402
▁Hans	-6403
▁Services	-6404
▁Eric	-6405
▁Mississippi	-6406
wealth	-6407
▁specifically	-6408
▁Jane	-6409
coh	-6410
▁combination	-6411
▁substant	-6412
GB	-6413
▁diam	-6414
iller	-6415
▁operate	-6416
▁Melbourne	-6417
▁cycl	-6418
▁64,	-6419
▁importance	-6420
▁Kl	-6421
▁touch	-6422
outs	-6423
▁Kal	-6424
elsh	-6425
▁2004.	-6426
appe	-6427
▁goes	-6428
irty	-6429
▁Roger	-6430
▁factors	-6431
▁consequ	-6432
oly	-6433
point	-6434
▁closely	-6435
▁Samuel	-6436
▁articles	-6437
▁compris	-6438
obe	-6439
▁Anderson	-6440
▁Ty	-6441
▁Oregon	-6442
39	-6443
▁describes	-6444
▁supporting	-6445
▁38	-6446
TS	-6447
▁jazz	-6448
▁Origin	-6449
▁Males	-6450
▁consisted	-6451
▁;	-6452
ologists	-6453
dale	-6454
▁heard	-6455
▁1964	-6456
▁quite	-6457
▁elimin	-6458
▁situated	-6459
▁calcul	-6460
▁experien	-6461
▁improved	-6462
–17	-6463
▁Dur	-6464
▁Marine	-6465
lets	-6466
▁athlet	-6467
▁inhabitants	-6468
erts	-6469
▁your	-6470
▁Brand	-6471
ogen	-6472
box	-6473
iable	-6474
▁teacher	-6475
▁regarding	-6476
▁Trust	-6477
▁proced	-6478
▁Crown	-6479
▁exped	-6480
▁operates	-6481
gency	-6482
▁partner	-6483
anton	-6484
uster	-6485
▁parallel	-6486
▁arrested	-6487
ceived	-6488
lahoma	-6489
orage	-6490
▁Pur	-6491
▁phen	-6492
▁Ern	-6493
▁1998,	-6494
▁repeated	-6495
▁Patrick	-6496
▁Finn	-6497
▁briefly	-6498
▁offices	-6499
▁participated	-6500
ellite	-6501
▁Regional	-6502
▁humans	-6503
▁Mit	-6504
▁environmental	-6505
▁Harvard	-6506
▁possibly	-6507
tered	-6508
▁teaching	-6509
ão	-6510
agu	-6511
▁technical	-6512
▁Honor	-6513
▁weather	-6514
rell	-6515
▁successfully	-6516
▁What	-6517
▁churches	-6518
▁roads	-6519
III	-6520
come	-6521
inth	-6522
▁entry	-6523
▁edge	-6524
ologies	-6525
▁adapted	-6526
star	-6527
rations	-6528
▁21,	-6529
▁sole	-6530
▁WW	-6531
▁Kentucky	-6532
uv	-6533
ographical	-6534
rons	-6535
cies	-6536
▁accur	-6537
▁impr	-6538
▁educated	-6539
AM	-6540
▁defense	-6541
▁Songs	-6542
▁holding	-6543
usal	-6544
▁instance	-6545
▁pron	-6546
▁Lawrence	-6547
▁poetry	-6548
▁Sky	-6549
▁44,	-6550
▁Management	-6551
▁gain	-6552
▁Moore	-6553
▁Rab	-6554
▁pul	-6555
▁universities	-6556
▁consisting	-6557
▁Exec	-6558
▁Building	-6559
yard	-6560
▁birds	-6561
▁conference	-6562
ache	-6563
▁ones	-6564
▁contest	-6565
▁planning	-6566
▁copy	-6567
▁Barn	-6568
insula	-6569
Bl	-6570
''	-6571
▁Oklahoma	-6572
▁producing	-6573
▁doing	-6574
▁translated	-6575
arks	-6576
zona	-6577
cell	-6578
▁aged	-6579
enh	-6580
▁encoura	-6581
▁notably	-6582
avig	-6583
▁Hit	-6584
▁painter	-6585
icide	-6586
▁rejected	-6587
▁Windows	-6588
29	-6589
▁trust	-6590
▁merch	-6591
▁30,	-6592
▁factor	-6593
▁Indones	-6594
▁1966	-6595
▁Hand	-6596
▁recognition	-6597
▁steam	-6598
▁Kings	-6599
oen	-6600
▁advent	-6601
▁Clin	-6602
▁Confeder	-6603
etime	-6604
▁22,	-6605
▁Az	-6606
▁chain	-6607
It	-6608
▁beaut	-6609
▁Express	-6610
▁defend	-6611
▁ABC	-6612
ules	-6613
▁involving	-6614
▁Dom	-6615
49	-6616
▁NAS	-6617
▁typical	-6618
▁advantage	-6619
▁Musical	-6620
▁habit	-6621
▁guard	-6622
▁Lieutenant	-6623
▁Detroit	-6624
▁singers	-6625
▁Culture	-6626
icate	-6627
▁covers	-6628
▁injury	-6629
▁occas	-6630
▁statement	-6631
▁bodies	-6632
▁affected	-6633
▁subsid	-6634
▁passes	-6635
▁Let	-6636
▁popularity	-6637
▁Engineering	-6638
angel	-6639
▁Lanc	-6640
then	-6641
utt	-6642
▁Wy	-6643
▁convent	-6644
▁gall	-6645
unications	-6646
▁extension	-6647
▁faith	-6648
▁2011.	-6649
▁Hell	-6650
▁cycle	-6651
▁Las	-6652
▁Belg	-6653
▁institution	-6654
▁É	-6655
▁Bou	-6656
ublin	-6657
▁escape	-6658
enz	-6659
▁Commonwealth	-6660
▁Billboard	-6661
icut	-6662
▁Puerto	-6663
elson	-6664
▁Anthony	-6665
▁carbon	-6666
▁Lis	-6667
▁Iron	-6668
▁output	-6669
▁Information	-6670
itzerland	-6671
▁stores	-6672
▁AM	-6673
▁animated	-6674
▁Heritage	-6675
▁Mountains	-6676
▁Karl	-6677
▁Last	-6678
▁somew	-6679
▁nor	-6680
▁warn	-6681
▁programme	-6682
▁Elementary	-6683
▁Bruce	-6684
night	-6685
▁passing	-6686
othing	-6687
▁colonial	-6688
▁Championships	-6689
▁wor	-6690
SR	-6691
orney	-6692
▁bond	-6693
agh	-6694
▁Ottoman	-6695
▁Stew	-6696
▁Dave	-6697
anned	-6698
▁armed	-6699
▁difference	-6700
vo	-6701
▁64	-6702
▁Houston	-6703
▁Schools	-6704
long	-6705
▁1965	-6706
▁Mem	-6707
vant	-6708
▁Khan	-6709
▁EP	-6710
▁Mand	-6711
▁corner	-6712
▁fixed	-6713
ulate	-6714
▁uniform	-6715
▁receiving	-6716
▁laid	-6717
▁Moh	-6718
▁doct	-6719
run	-6720
▁corpor	-6721
rator	-6722
▁definition	-6723
▁Region	-6724
▁user	-6725
▁Austrian	-6726
▁1945	-6727
▁founding	-6728
▁2:	-6729
ür	-6730
▁Beat	-6731
▁request	-6732
▁19,	-6733
▁degrees	-6734
▁naval	-6735
▁Federation	-6736
23	-6737
pective	-6738
▁pione	-6739
▁Winter	-6740
▁electronic	-6741
▁Hamp	-6742
▁fashion	-6743
▁gar	-6744
oyd	-6745
idden	-6746
hetic	-6747
▁install	-6748
mers	-6749
oli	-6750
▁Legisl	-6751
hr	-6752
▁pros	-6753
▁Grant	-6754
▁kingdom	-6755
▁Affairs	-6756
We	-6757
▁candidates	-6758
yles	-6759
▁Staff	-6760
osm	-6761
▁(188	-6762
ourney	-6763
▁installed	-6764
▁scenes	-6765
▁images	-6766
▁Sources	-6767
▁cold	-6768
▁Cemetery	-6769
▁commissioned	-6770
▁highway	-6771
▁Your	-6772
▁moment	-6773
▁Chart	-6774
raine	-6775
inking	-6776
▁Trad	-6777
term	-6778
▁Metropolitan	-6779
▁Key	-6780
▁Kennedy	-6781
▁tail	-6782
▁33	-6783
▁dates	-6784
▁Arizona	-6785
borough	-6786
▁Towns	-6787
▁Bah	-6788
▁Moscow	-6789
▁mist	-6790
▁painting	-6791
▁significantly	-6792
▁Welsh	-6793
▁flat	-6794
▁designs	-6795
ocracy	-6796
▁homes	-6797
unnel	-6798
▁Then	-6799
▁Garden	-6800
▁goods	-6801
▁Berg	-6802
▁Dyn	-6803
▁brain	-6804
▁focused	-6805
enses	-6806
▁Roc	-6807
▁passengers	-6808
58	-6809
▁Operation	-6810
▁establishment	-6811
▁Bart	-6812
▁1996,	-6813
▁strike	-6814
▁adjacent	-6815
▁walls	-6816
▁Peace	-6817
▁instruments	-6818
▁Dec	-6819
mat	-6820
▁37	-6821
▁progress	-6822
▁hour	-6823
rin	-6824
▁select	-6825
▁differences	-6826
▁Whe	-6827
▁improve	-6828
▁Swiss	-6829
▁leads	-6830
▁pages	-6831
▁Tar	-6832
org	-6833
▁context	-6834
▁costs	-6835
▁Donald	-6836
don	-6837
▁Gab	-6838
▁task	-6839
▁Danish	-6840
vens	-6841
▁monarch	-6842
▁Orthodox	-6843
▁graduated	-6844
▁cool	-6845
▁Init	-6846
▁purposes	-6847
▁Alab	-6848
▁Louisiana	-6849
▁Upon	-6850
▁relative	-6851
▁1997,	-6852
▁solid	-6853
▁dry	-6854
-200	-6855
ective	-6856
▁IS	-6857
▁borough	-6858
▁23,	-6859
▁plane	-6860
clusion	-6861
scape	-6862
▁Pear	-6863
▁starred	-6864
▁fram	-6865
▁sale	-6866
▁Raj	-6867
▁intelligence	-6868
▁Infantry	-6869
▁counties	-6870
▁items	-6871
aved	-6872
▁circum	-6873
▁link	-6874
unch	-6875
▁doctor	-6876
▁Once	-6877
▁Record	-6878
▁Kat	-6879
ailed	-6880
burn	-6881
▁sust	-6882
▁shall	-6883
▁Switzerland	-6884
▁CBS	-6885
▁sell	-6886
▁sixth	-6887
▁devices	-6888
▁crown	-6889
▁divers	-6890
▁Dead	-6891
▁Palace	-6892
▁Buck	-6893
po	-6894
▁trav	-6895
▁neut	-6896
59	-6897
▁residing	-6898
ordan	-6899
▁survey	-6900
thm	-6901
▁Communist	-6902
▁Run	-6903
▁accompan	-6904
level	-6905
IT	-6906
▁Gener	-6907
▁Cooper	-6908
An	-6909
▁36	-6910
▁violence	-6911
▁retirement	-6912
-0	-6913
▁visual	-6914
▁Phill	-6915
▁Juan	-6916
▁sector	-6917
ocol	-6918
▁tank	-6919
▁$4	-6920
emic	-6921
▁phr	-6922
kh	-6923
▁yellow	-6924
▁missing	-6925
▁tells	-6926
▁Years	-6927
▁AC	-6928
▁cra	-6929
▁Log	-6930
▁Ll	-6931
iful	-6932
▁Diego	-6933
▁Denmark	-6934
▁Magazine	-6935
▁rebu	-6936
▁requires	-6937
idae	-6938
▁Fac	-6939
▁funds	-6940
die	-6941
apes	-6942
▁Cre	-6943
owned	-6944
▁Connecticut	-6945
▁hair	-6946
▁components	-6947
▁Croat	-6948
▁Alfred	-6949
▁Nar	-6950
BM	-6951
▁submar	-6952
▁Gulf	-6953
▁2000.	-6954
▁Sel	-6955
▁hun	-6956
▁Place	-6957
agen	-6958
▁fer	-6959
▁fictional	-6960
▁concluded	-6961
▁28,	-6962
▁2012.	-6963
▁ign	-6964
such	-6965
▁legend	-6966
▁Five	-6967
▁genus	-6968
▁Treaty	-6969
▁Alabama	-6970
aux	-6971
▁44	-6972
▁resemb	-6973
ushed	-6974
while	-6975
▁vice	-6976
▁partnership	-6977
father	-6978
▁Norman	-6979
olph	-6980
▁solution	-6981
▁medieval	-6982
▁kil	-6983
▁file	-6984
▁demand	-6985
▁rates	-6986
▁lat	-6987
▁decade	-6988
▁policies	-6989
▁temple	-6990
▁Franklin	-6991
▁Broadway	-6992
▁budget	-6993
▁sections	-6994
▁Roberts	-6995
▁Philos	-6996
mosp	-6997
▁Ltd	-6998
▁ans	-6999
miral	-7000
▁employees	-7001
▁Ra	-7002
▁11.	-7003
▁castle	-7004
▁Environment	-7005
▁400	-7006
▁vs	-7007
Sp	-7008
▁Lyn	-7009
▁Ins	-7010
▁Sn	-7011
▁doll	-7012
▁reality	-7013
heastern	-7014
ghan	-7015
▁nickn	-7016
cha	-7017
▁Fleet	-7018
▁appoint	-7019
▁Fall	-7020
▁Sport	-7021
▁agricultural	-7022
▁Mayor	-7023
▁judge	-7024
▁trying	-7025
ika	-7026
▁grounds	-7027
oz	-7028
▁Independent	-7029
▁inters	-7030
▁Bowl	-7031
▁Ali	-7032
▁benef	-7033
▁Turkish	-7034
aza	-7035
▁Gene	-7036
▁waters	-7037
▁Register	-7038
▁Nazi	-7039
▁Comple	-7040
ski	-7041
▁frequency	-7042
Is	-7043
found	-7044
99	-7045
▁technique	-7046
▁Ku	-7047
▁ceremony	-7048
Cl	-7049
vements	-7050
who	-7051
▁territories	-7052
▁ban	-7053
argo	-7054
▁Satur	-7055
▁26,	-7056
▁courts	-7057
aren	-7058
ugar	-7059
oked	-7060
▁pup	-7061
▁favour	-7062
▁Dal	-7063
61	-7064
achers	-7065
▁extremely	-7066
agle	-7067
▁2003.	-7068
going	-7069
uma	-7070
▁Vice	-7071
▁freedom	-7072
▁150	-7073
▁liqu	-7074
▁charts	-7075
▁12.	-7076
▁Montreal	-7077
▁patients	-7078
▁ment	-7079
▁otherwise	-7080
▁obtain	-7081
▁Metro	-7082
▁row	-7083
▁Buff	-7084
▁27,	-7085
ikh	-7086
▁Matthew	-7087
▁invent	-7088
▁Friend	-7089
▁category	-7090
▁Russell	-7091
▁ille	-7092
▁Johann	-7093
▁Mult	-7094
▁Natural	-7095
▁severe	-7096
IV	-7097
▁seems	-7098
stances	-7099
▁suggests	-7100
▁poem	-7101
▁resigned	-7102
▁Tokyo	-7103
▁Dall	-7104
▁Princess	-7105
iley	-7106
▁funding	-7107
▁perhaps	-7108
▁hired	-7109
▁Here	-7110
▁Portugal	-7111
▁flying	-7112
veland	-7113
▁Vin	-7114
▁anniversary	-7115
▁aer	-7116
hard	-7117
▁documents	-7118
▁Prior	-7119
▁Commander	-7120
DA	-7121
▁Dublin	-7122
▁Protest	-7123
▁surg	-7124
rapy	-7125
▁stating	-7126
▁reaching	-7127
died	-7128
▁Dep	-7129
▁Arn	-7130
avalry	-7131
▁egg	-7132
▁evolution	-7133
▁Amb	-7134
phone	-7135
ovak	-7136
▁retained	-7137
▁inform	-7138
stic	-7139
rett	-7140
▁tex	-7141
ilarly	-7142
▁Stanley	-7143
inch	-7144
▁Production	-7145
ista	-7146
▁Palest	-7147
▁Farm	-7148
▁Constant	-7149
▁Cow	-7150
▁anth	-7151
▁upd	-7152
▁purchase	-7153
▁decor	-7154
▁shut	-7155
ui	-7156
▁Nik	-7157
▁NBC	-7158
▁registered	-7159
▁FM	-7160
▁absor	-7161
▁ri	-7162
▁Pap	-7163
▁criminal	-7164
▁Laure	-7165
▁weak	-7166
▁Jam	-7167
▁sun	-7168
rac	-7169
ranged	-7170
▁Kr	-7171
▁Iowa	-7172
▁calling	-7173
▁guitarist	-7174
▁Malays	-7175
▁batter	-7176
inations	-7177
▁Taiwan	-7178
▁1963	-7179
▁users	-7180
▁factory	-7181
▁34	-7182
▁Track	-7183
cyclop	-7184
▁accused	-7185
▁catal	-7186
uous	-7187
▁try	-7188
▁Wrestling	-7189
▁recordings	-7190
▁separated	-7191
▁delay	-7192
▁increasingly	-7193
▁Gri	-7194
▁Ext	-7195
▁Nort	-7196
▁1995,	-7197
▁capture	-7198
inian	-7199
bal	-7200
ellect	-7201
▁watch	-7202
▁zone	-7203
▁Cost	-7204
▁Israeli	-7205
▁Bry	-7206
▁advoc	-7207
▁Pitts	-7208
ho	-7209
▁finish	-7210
▁isol	-7211
De	-7212
▁Call	-7213
▁Albums	-7214
▁Turkey	-7215
town	-7216
ithm	-7217
▁archae	-7218
–4	-7219
▁Fried	-7220
▁successor	-7221
▁Hop	-7222
pa	-7223
▁CDP	-7224
▁alcoh	-7225
▁details	-7226
▁eye	-7227
olly	-7228
▁herself	-7229
▁Lang	-7230
▁draft	-7231
▁Adams	-7232
▁promote	-7233
▁divisions	-7234
57	-7235
aked	-7236
▁tall	-7237
▁wins	-7238
▁nothing	-7239
▁Cleveland	-7240
▁Gi	-7241
phony	-7242
▁swim	-7243
▁dismiss	-7244
▁delivered	-7245
▁Abd	-7246
▁interests	-7247
▁Upper	-7248
uscript	-7249
asure	-7250
▁san	-7251
▁mand	-7252
▁preced	-7253
▁lect	-7254
atab	-7255
▁scheduled	-7256
▁rhy	-7257
ommod	-7258
asts	-7259
▁interior	-7260
▁Liver	-7261
sky	-7262
▁northeast	-7263
▁communication	-7264
▁Administration	-7265
iami	-7266
▁Battalion	-7267
▁thousands	-7268
▁cards	-7269
▁Bernard	-7270
▁4:	-7271
ourses	-7272
▁Ban	-7273
▁Marvel	-7274
▁credited	-7275
acc	-7276
▁Set	-7277
-18	-7278
32	-7279
antly	-7280
▁Populated	-7281
vi	-7282
eless	-7283
▁Alexand	-7284
▁Orchestra	-7285
▁hits	-7286
orig	-7287
▁rivers	-7288
▁franchise	-7289
▁yards	-7290
▁(;	-7291
▁persons	-7292
▁approp	-7293
▁Cru	-7294
iva	-7295
redited	-7296
annels	-7297
▁consult	-7298
iency	-7299
▁29,	-7300
▁fan	-7301
agues	-7302
▁emot	-7303
▁representing	-7304
="	-7305
▁demonstr	-7306
▁Maur	-7307
▁mort	-7308
li	-7309
▁crowd	-7310
▁dies	-7311
song	-7312
▁2013.	-7313
▁backing	-7314
oples	-7315
verse	-7316
▁Every	-7317
▁Lane	-7318
▁faced	-7319
▁induct	-7320
amps	-7321
▁Bible	-7322
ucks	-7323
inter	-7324
▁broken	-7325
▁Hotel	-7326
▁SS	-7327
imore	-7328
▁clean	-7329
▁educational	-7330
▁attached	-7331
▁criticism	-7332
ourse	-7333
orial	-7334
▁businesses	-7335
▁distributed	-7336
▁Stewart	-7337
seud	-7338
odge	-7339
▁selection	-7340
▁Armen	-7341
▁Dog	-7342
omic	-7343
▁Christopher	-7344
▁medium	-7345
istical	-7346
ymn	-7347
fare	-7348
▁Method	-7349
▁collected	-7350
▁Tit	-7351
eland	-7352
▁comed	-7353
▁Airlines	-7354
▁Magn	-7355
▁skin	-7356
▁coordin	-7357
▁chose	-7358
▁Heb	-7359
▁Sign	-7360
▁fresh	-7361
▁survived	-7362
▁Sac	-7363
▁2001.	-7364
▁die	-7365
oslav	-7366
rot	-7367
▁assass	-7368
000.	-7369
▁Equ	-7370
▁sed	-7371
▁legislation	-7372
arsh	-7373
▁Margaret	-7374
▁processes	-7375
▁landing	-7376
▁Digital	-7377
▁explos	-7378
▁manufacturing	-7379
▁premier	-7380
▁react	-7381
▁Studios	-7382
▁modified	-7383
inction	-7384
▁northwest	-7385
▁divor	-7386
▁experienced	-7387
▁twelve	-7388
▁why	-7389
▁entrance	-7390
▁Never	-7391
▁assumed	-7392
▁capable	-7393
34	-7394
▁1962	-7395
▁Benn	-7396
▁Standard	-7397
▁composition	-7398
idel	-7399
chell	-7400
▁criticized	-7401
aware	-7402
▁boat	-7403
▁print	-7404
▁spoken	-7405
ía	-7406
▁Broadcast	-7407
intend	-7408
▁1994,	-7409
▁Convention	-7410
▁Knight	-7411
▁audio	-7412
rates	-7413
▁determine	-7414
▁decline	-7415
▁Belgium	-7416
▁investigation	-7417
▁planet	-7418
▁ham	-7419
rastructure	-7420
attan	-7421
pha	-7422
▁Hungarian	-7423
▁provincial	-7424
▁Rang	-7425
▁restored	-7426
▁playoff	-7427
poss	-7428
▁testing	-7429
ooth	-7430
▁worth	-7431
amental	-7432
rat	-7433
▁Dak	-7434
▁Py	-7435
▁Brazilian	-7436
RC	-7437
▁Ale	-7438
lock	-7439
▁Ancient	-7440
▁boundary	-7441
▁marg	-7442
▁really	-7443
▁charges	-7444
▁portrayed	-7445
▁crisis	-7446
▁stands	-7447
▁Century	-7448
▁showing	-7449
▁exception	-7450
▁bottom	-7451
▁assault	-7452
▁Billy	-7453
▁sort	-7454
▁disestab	-7455
▁hotel	-7456
▁standing	-7457
▁damaged	-7458
▁arc	-7459
▁Rivers	-7460
▁unus	-7461
▁drawn	-7462
▁plate	-7463
▁demonst	-7464
▁movements	-7465
▁adaptation	-7466
inburgh	-7467
▁39	-7468
soft	-7469
crib	-7470
iege	-7471
mb	-7472
▁expression	-7473
▁Jordan	-7474
▁Finland	-7475
dr	-7476
rong	-7477
-7	-7478
▁vert	-7479
▁Yan	-7480
▁mouth	-7481
▁scoring	-7482
ture	-7483
ateur	-7484
ricane	-7485
▁veget	-7486
▁engaged	-7487
▁cooper	-7488
He	-7489
▁influential	-7490
▁Apple	-7491
heme	-7492
▁descend	-7493
▁shell	-7494
yst	-7495
aro	-7496
▁Miami	-7497
▁Inn	-7498
▁accommod	-7499
mus	-7500
▁feed	-7501
▁witness	-7502
▁residence	-7503
irt	-7504
▁note	-7505
▁Ward	-7506
▁Da	-7507
▁Canal	-7508
▁Ever	-7509
▁rich	-7510
▁warm	-7511
▁declined	-7512
▁lawyer	-7513
low	-7514
iga	-7515
▁Jay	-7516
▁Senator	-7517
▁juris	-7518
▁regularly	-7519
▁downtown	-7520
▁snow	-7521
▁Box	-7522
▁fly	-7523
▁charged	-7524
▁Campbell	-7525
▁48	-7526
▁Guide	-7527
atur	-7528
▁roughly	-7529
▁depending	-7530
▁consecutive	-7531
▁restrict	-7532
▁2002.	-7533
▁Winn	-7534
▁Atlanta	-7535
antine	-7536
called	-7537
▁Borough	-7538
6).	-7539
▁Lam	-7540
mod	-7541
▁Tan	-7542
▁McK	-7543
atern	-7544
▁gender	-7545
▁Global	-7546
▁DNA	-7547
▁measures	-7548
▁Born	-7549
▁retail	-7550
▁classic	-7551
where	-7552
▁1961	-7553
▁opportunity	-7554
▁(,	-7555
▁Tower	-7556
▁Brothers	-7557
▁ped	-7558
▁driving	-7559
claimed	-7560
▁Rights	-7561
dam	-7562
▁Scient	-7563
▁Additionally	-7564
▁Saf	-7565
▁Politics	-7566
▁wheel	-7567
▁aspects	-7568
▁Obs	-7569
▁Fu	-7570
▁string	-7571
▁assess	-7572
▁Mission	-7573
▁1944	-7574
▁coastal	-7575
atically	-7576
▁Walker	-7577
▁stret	-7578
▁ratio	-7579
▁describe	-7580
▁controversy	-7581
▁Gran	-7582
pur	-7583
▁inher	-7584
▁accompanied	-7585
▁sufficient	-7586
▁Row	-7587
▁Prix	-7588
▁Hindu	-7589
inema	-7590
▁practices	-7591
▁intern	-7592
▁diagn	-7593
▁debate	-7594
▁Publishing	-7595
▁references	-7596
chang	-7597
iph	-7598
▁reputation	-7599
CD	-7600
▁Report	-7601
jo	-7602
▁Afghan	-7603
▁Rick	-7604
▁Antonio	-7605
otte	-7606
▁thick	-7607
▁Warner	-7608
▁resign	-7609
ige	-7610
▁Volume	-7611
▁battles	-7612
tery	-7613
▁2014.	-7614
▁commemor	-7615
▁foundation	-7616
▁Fil	-7617
▁selling	-7618
▁Mean	-7619
iggest	-7620
▁proport	-7621
▁Boys	-7622
▁manner	-7623
zh	-7624
▁milit	-7625
▁understanding	-7626
▁Rena	-7627
resents	-7628
▁fired	-7629
és	-7630
▁mart	-7631
▁Again	-7632
▁Cass	-7633
▁Alliance	-7634
▁commit	-7635
season	-7636
ounce	-7637
aron	-7638
▁superv	-7639
ayer	-7640
▁Ow	-7641
▁skills	-7642
▁rugby	-7643
ithuan	-7644
endar	-7645
▁Defense	-7646
▁streets	-7647
▁Wright	-7648
▁Municipal	-7649
▁somewhat	-7650
▁Bull	-7651
apolis	-7652
▁Morgan	-7653
ET	-7654
▁aware	-7655
▁owners	-7656
▁carrying	-7657
▁fine	-7658
▁Chamber	-7659
▁Kevin	-7660
▁edited	-7661
▁promotion	-7662
▁door	-7663
▁ownership	-7664
▁1948	-7665
▁Edinburgh	-7666
▁Seven	-7667
friend	-7668
uters	-7669
ogether	-7670
▁committed	-7671
–5	-7672
issue	-7673
▁considerable	-7674
▁electron	-7675
bridge	-7676
xual	-7677
▁Executive	-7678
▁Hungary	-7679
▁linked	-7680
▁Mort	-7681
▁Fund	-7682
▁Chile	-7683
▁authors	-7684
▁NY	-7685
1).	-7686
di	-7687
▁McD	-7688
ensed	-7689
▁arrival	-7690
▁Liverpool	-7691
▁Tele	-7692
▁Angl	-7693
▁Hum	-7694
▁Ve	-7695
▁Johnny	-7696
▁actresses	-7697
inding	-7698
▁replacement	-7699
▁Murray	-7700
–20	-7701
▁Ped	-7702
▁concerns	-7703
▁transition	-7704
▁Cold	-7705
▁exists	-7706
▁Food	-7707
▁Beg	-7708
▁alleg	-7709
▁protected	-7710
▁duty	-7711
div	-7712
▁wides	-7713
▁occasionally	-7714
orus	-7715
tenance	-7716
▁markets	-7717
PC	-7718
▁Reserve	-7719
▁algor	-7720
▁deleg	-7721
▁protest	-7722
oba	-7723
▁Rest	-7724
aby	-7725
▁roof	-7726
▁Manh	-7727
▁Deput	-7728
▁Bapt	-7729
ifer	-7730
DS	-7731
▁strategy	-7732
▁executed	-7733
▁finds	-7734
▁singing	-7735
▁option	-7736
▁storage	-7737
▁useful	-7738
▁Arkansas	-7739
▁atmosp	-7740
▁Architect	-7741
▁(7	-7742
▁Bed	-7743
–194	-7744
▁Seattle	-7745
▁learned	-7746
▁message	-7747
▁initi	-7748
▁Junior	-7749
ranean	-7750
▁Motor	-7751
▁Collection	-7752
▁terror	-7753
merce	-7754
▁suff	-7755
oons	-7756
▁volunte	-7757
▁Thompson	-7758
eway	-7759
▁Saturday	-7760
▁enh	-7761
▁rif	-7762
▁represents	-7763
▁hosts	-7764
▁Luther	-7765
otype	-7766
▁1959	-7767
▁Nelson	-7768
▁imprison	-7769
▁Rain	-7770
▁Hampshire	-7771
▁enl	-7772
▁Unlike	-7773
▁prohib	-7774
▁transmission	-7775
boards	-7776
struct	-7777
urers	-7778
▁Aer	-7779
▁1993,	-7780
▁hur	-7781
▁Rub	-7782
▁Horn	-7783
▁opinion	-7784
AA	-7785
▁1958	-7786
▁Beck	-7787
ignated	-7788
▁Kelly	-7789
ét	-7790
▁1992,	-7791
ictions	-7792
▁nations	-7793
▁representative	-7794
icon	-7795
▁ster	-7796
▁duties	-7797
▁Baltimore	-7798
▁indicate	-7799
▁description	-7800
pers	-7801
▁southwest	-7802
lan	-7803
▁cited	-7804
iece	-7805
▁flo	-7806
bound	-7807
▁accounts	-7808
▁Chem	-7809
▁mode	-7810
▁frag	-7811
▁2015.	-7812
▁picture	-7813
▁Our	-7814
▁wars	-7815
3).	-7816
▁Kit	-7817
din	-7818
▁scheme	-7819
hol	-7820
▁formally	-7821
eenth	-7822
▁effectively	-7823
rows	-7824
esc	-7825
▁tropical	-7826
anny	-7827
ashed	-7828
▁whereas	-7829
▁greatly	-7830
▁phenomen	-7831
▁representation	-7832
rant	-7833
▁composers	-7834
▁prisoners	-7835
▁celebrated	-7836
▁Mess	-7837
▁prepared	-7838
▁Language	-7839
▁Argentina	-7840
▁Kam	-7841
▁NBA	-7842
▁Carter	-7843
";	-7844
rices	-7845
▁expedition	-7846
▁simpl	-7847
▁rend	-7848
IP	-7849
▁surre	-7850
ancell	-7851
▁Cultural	-7852
▁subjects	-7853
▁Mrs	-7854
▁1939	-7855
▁tick	-7856
leased	-7857
▁1990,	-7858
▁wrest	-7859
▁strongly	-7860
▁requirements	-7861
▁girls	-7862
▁Persian	-7863
▁invited	-7864
dy	-7865
▁Merc	-7866
▁Dallas	-7867
▁mir	-7868
arked	-7869
▁pitch	-7870
▁ensure	-7871
▁tribes	-7872
▁channels	-7873
▁responsibility	-7874
▁Electric	-7875
▁160	-7876
▁stopped	-7877
oming	-7878
▁directors	-7879
▁stages	-7880
▁Byz	-7881
rav	-7882
▁inaug	-7883
ultan	-7884
▁Robinson	-7885
▁colleges	-7886
▁check	-7887
▁external	-7888
▁neighbour	-7889
▁Brigade	-7890
mingham	-7891
atin	-7892
▁supposed	-7893
▁1956	-7894
agg	-7895
pread	-7896
▁13.	-7897
▁squad	-7898
eed	-7899
▁bran	-7900
▁achieve	-7901
▁util	-7902
▁banks	-7903
▁encounter	-7904
▁Marshall	-7905
▁bed	-7906
▁Jimmy	-7907
▁Fal	-7908
▁convention	-7909
▁circuit	-7910
▁Trade	-7911
door	-7912
abled	-7913
▁Market	-7914
▁Trail	-7915
▁affect	-7916
▁save	-7917
▁Sax	-7918
▁Unt	-7919
–196	-7920
cular	-7921
▁normally	-7922
▁agency	-7923
▁liberal	-7924
▁recre	-7925
ocese	-7926
▁31,	-7927
lad	-7928
▁medicine	-7929
atherine	-7930
▁rapidly	-7931
▁(8	-7932
▁unsuccess	-7933
▁buy	-7934
▁adding	-7935
otes	-7936
▁portra	-7937
▁Psych	-7938
▁expos	-7939
▁fishing	-7940
▁Thor	-7941
▁kid	-7942
▁Father	-7943
▁trip	-7944
▁Ky	-7945
▁Economic	-7946
▁southeast	-7947
▁membership	-7948
iki	-7949
▁soil	-7950
-9	-7951
rama	-7952
▁Anglo	-7953
▁Such	-7954
▁Support	-7955
▁1942	-7956
coming	-7957
▁Pittsburgh	-7958
▁ere	-7959
▁drivers	-7960
▁rent	-7961
utor	-7962
▁hors	-7963
▁entertainment	-7964
uty	-7965
ters	-7966
▁grade	-7967
100	-7968
▁fit	-7969
▁Cart	-7970
ctic	-7971
▁App	-7972
:00	-7973
SS	-7974
26	-7975
▁vow	-7976
ds	-7977
▁tact	-7978
▁José	-7979
▁spiritual	-7980
ontin	-7981
▁Wes	-7982
▁cable	-7983
tion	-7984
▁controversial	-7985
▁Jenn	-7986
▁reun	-7987
▁plus	-7988
▁ago	-7989
▁Barry	-7990
uis	-7991
▁imag	-7992
rypt	-7993
BI	-7994
▁49	-7995
▁filmed	-7996
▁populations	-7997
▁tests	-7998
▁seconds	-7999
▁fal	-8000
▁(187	-8001
▁1991,	-8002
▁expect	-8003
▁benefit	-8004
▁perfect	-8005
▁Hom	-8006
▁Code	-8007
▁FC	-8008
▁Tel	-8009
▁Christianity	-8010
rolled	-8011
emen	-8012
▁session	-8013
▁refuge	-8014
▁Pa	-8015
▁nom	-8016
▁Flight	-8017
▁veter	-8018
▁texts	-8019
▁coverage	-8020
▁depos	-8021
OR	-8022
▁Beng	-8023
▁clin	-8024
▁investment	-8025
▁innov	-8026
ardo	-8027
▁MPs	-8028
▁Na	-8029
▁vessels	-8030
▁bishop	-8031
▁1957	-8032
olds	-8033
bat	-8034
bishop	-8035
▁eyes	-8036
▁mountains	-8037
AN	-8038
▁transportation	-8039
▁Authority	-8040
▁Pierre	-8041
▁mining	-8042
▁getting	-8043
▁Carib	-8044
▁weapon	-8045
▁ahead	-8046
▁Computer	-8047
▁principle	-8048
▁Aqu	-8049
▁classified	-8050
54	-8051
▁municipalities	-8052
▁grant	-8053
▁hill	-8054
▁settlers	-8055
▁producers	-8056
aton	-8057
▁accompl	-8058
▁Nash	-8059
Ne	-8060
▁jurisd	-8061
▁hypot	-8062
but	-8063
uda	-8064
▁satisf	-8065
▁explained	-8066
▁throne	-8067
▁switch	-8068
MP	-8069
cho	-8070
jan	-8071
▁forming	-8072
▁Nag	-8073
▁Birmingham	-8074
bean	-8075
LC	-8076
▁Mes	-8077
▁Benj	-8078
▁contributions	-8079
roc	-8080
▁2016.	-8081
Re	-8082
▁biggest	-8083
icop	-8084
▁existed	-8085
usalem	-8086
▁Tax	-8087
eping	-8088
udes	-8089
▁trail	-8090
▁dating	-8091
▁1955	-8092
▁affairs	-8093
orporated	-8094
▁Ka	-8095
erted	-8096
using	-8097
▁Male	-8098
36	-8099
▁Peters	-8100
▁colour	-8101
▁Anim	-8102
▁AS	-8103
▁Agency	-8104
▁Gary	-8105
▁Vienna	-8106
▁1941	-8107
▁Ian	-8108
▁electoral	-8109
▁da	-8110
ci	-8111
▁garden	-8112
31	-8113
▁looking	-8114
▁Agric	-8115
do	-8116
General	-8117
▁prompt	-8118
▁widespread	-8119
▁stood	-8120
▁1947	-8121
▁Professional	-8122
▁Pruss	-8123
atters	-8124
▁Graham	-8125
▁classification	-8126
▁minimum	-8127
▁Lower	-8128
▁Mong	-8129
apping	-8130
▁extens	-8131
ductions	-8132
▁Indians	-8133
overe	-8134
▁visitors	-8135
▁Norm	-8136
▁questions	-8137
▁praised	-8138
▁Cit	-8139
sch	-8140
oca	-8141
▁Climate	-8142
roke	-8143
▁photograph	-8144
▁residential	-8145
▁1946	-8146
▁Hud	-8147
▁Online	-8148
▁chance	-8149
achelor	-8150
▁Nation	-8151
oker	-8152
lem	-8153
▁headed	-8154
▁pure	-8155
abet	-8156
▁scientists	-8157
azines	-8158
wall	-8159
▁historians	-8160
▁admitted	-8161
▁Ry	-8162
▁credit	-8163
▁footballers	-8164
▁Ess	-8165
▁emperor	-8166
itals	-8167
ivation	-8168
▁crop	-8169
▁Warren	-8170
▁Colonel	-8171
onian	-8172
▁networks	-8173
iterranean	-8174
You	-8175
▁Dance	-8176
▁Yug	-8177
▁crossing	-8178
▁(9	-8179
▁Fact	-8180
▁withdraw	-8181
▁Egyptian	-8182
▁offering	-8183
▁input	-8184
▁Rud	-8185
▁genre	-8186
▁mil	-8187
4).	-8188
▁sympt	-8189
▁massive	-8190
▁fear	-8191
▁courses	-8192
▁manuscript	-8193
▁visible	-8194
!"	-8195
▁disappe	-8196
iah	-8197
▁filled	-8198
▁Manhattan	-8199
▁teen	-8200
▁intellect	-8201
▁none	-8202
essions	-8203
aste	-8204
away	-8205
▁Kaz	-8206
aire	-8207
OC	-8208
▁Emer	-8209
▁Falls	-8210
▁starts	-8211
▁Germans	-8212
▁eval	-8213
▁Austin	-8214
▁Daily	-8215
▁Term	-8216
enez	-8217
▁Champions	-8218
▁longest	-8219
▁Si	-8220
▁Und	-8221
?"	-8222
▁paintings	-8223
▁boys	-8224
▁assistance	-8225
▁Hockey	-8226
stan	-8227
▁Marie	-8228
rient	-8229
▁Legacy	-8230
▁conservative	-8231
unes	-8232
▁caught	-8233
mund	-8234
▁Sri	-8235
▁Cathedral	-8236
▁renov	-8237
▁Ship	-8238
▁Movement	-8239
eing	-8240
endment	-8241
▁expat	-8242
▁Ult	-8243
▁1999.	-8244
EP	-8245
▁priest	-8246
▁protein	-8247
gebra	-8248
▁attributed	-8249
▁trained	-8250
▁Queensland	-8251
▁surf	-8252
▁Andre	-8253
▁Ryan	-8254
▁Mars	-8255
▁stress	-8256
▁heads	-8257
▁Guy	-8258
▁anch	-8259
▁governments	-8260
▁moder	-8261
▁af	-8262
▁frame	-8263
ictionary	-8264
hand	-8265
▁Around	-8266
▁Mond	-8267
▁surviving	-8268
▁periods	-8269
hered	-8270
▁temperatures	-8271
▁Race	-8272
▁renew	-8273
▁injured	-8274
▁Full	-8275
▁component	-8276
▁shif	-8277
▁Blood	-8278
site	-8279
▁42	-8280
▁Ice	-8281
▁Buddhist	-8282
▁proposal	-8283
▁arranged	-8284
▁Jerusalem	-8285
▁14.	-8286
▁Wa	-8287
-10	-8288
▁Lib	-8289
▁didn	-8290
adi	-8291
▁Instead	-8292
later	-8293
ti	-8294
▁Wayne	-8295
aughters	-8296
▁shel	-8297
▁mobile	-8298
ingham	-8299
mm	-8300
▁yield	-8301
andom	-8302
▁treated	-8303
theless	-8304
▁memorial	-8305
▁speak	-8306
▁repro	-8307
oses	-8308
▁Alaska	-8309
▁Wol	-8310
▁Fel	-8311
▁Pas	-8312
▁Fern	-8313
▁soul	-8314
oa	-8315
▁Pra	-8316
▁covering	-8317
cknow	-8318
ocal	-8319
▁releases	-8320
▁Democrats	-8321
▁Prom	-8322
▁hang	-8323
elli	-8324
▁Benjamin	-8325
▁Expl	-8326
sm	-8327
▁colony	-8328
▁Hend	-8329
▁gang	-8330
ouver	-8331
▁extent	-8332
▁tools	-8333
person	-8334
▁pray	-8335
▁Muham	-8336
▁Orange	-8337
▁1943	-8338
▁returns	-8339
iations	-8340
▁Spirit	-8341
▁Sig	-8342
lete	-8343
▁Anna	-8344
▁Fem	-8345
▁Vik	-8346
▁manif	-8347
iop	-8348
ishment	-8349
8).	-8350
orer	-8351
▁Mediterranean	-8352
eton	-8353
▁Cricket	-8354
▁infantry	-8355
▁processing	-8356
▁valid	-8357
gate	-8358
ando	-8359
▁Catal	-8360
top	-8361
▁75	-8362
grade	-8363
▁Dean	-8364
oria	-8365
7).	-8366
▁characteristics	-8367
▁cous	-8368
▁rating	-8369
▁Model	-8370
▁lasted	-8371
▁publishing	-8372
▁fil	-8373
ygen	-8374
aman	-8375
▁peoples	-8376
▁therm	-8377
master	-8378
▁transform	-8379
folk	-8380
▁2017.	-8381
ecess	-8382
ussion	-8383
▁Encyclop	-8384
ruption	-8385
▁discovery	-8386
▁Harrison	-8387
▁Patri	-8388
▁Rap	-8389
▁spaces	-8390
▁Baker	-8391
rage	-8392
▁Tot	-8393
▁Charlie	-8394
▁Soft	-8395
▁drum	-8396
▁Glas	-8397
▁Lud	-8398
leans	-8399
▁appearing	-8400
idency	-8401
▁printed	-8402
ewhere	-8403
▁Richmond	-8404
▁gradually	-8405
▁segment	-8406
leman	-8407
▁Ron	-8408
▁mental	-8409
▁Economy	-8410
angerous	-8411
▁erect	-8412
▁Sud	-8413
▁styles	-8414
inental	-8415
▁Veg	-8416
▁struck	-8417
atus	-8418
▁occupation	-8419
▁trading	-8420
▁flows	-8421
▁Ent	-8422
▁Net	-8423
▁Energy	-8424
▁Finnish	-8425
▁rose	-8426
assador	-8427
▁Youth	-8428
▁Vers	-8429
▁comics	-8430
▁Edition	-8431
▁venues	-8432
▁Organization	-8433
▁Neb	-8434
▁gram	-8435
▁Within	-8436
isition	-8437
▁Niger	-8438
▁pool	-8439
▁Rot	-8440
5,000	-8441
–195	-8442
▁Ald	-8443
hop	-8444
▁Phoen	-8445
▁temporary	-8446
▁tennis	-8447
▁excess	-8448
▁changing	-8449
▁replacing	-8450
▁displ	-8451
▁volumes	-8452
▁1989,	-8453
udden	-8454
▁Phot	-8455
▁traditions	-8456
▁camera	-8457
▁secretary	-8458
▁Dakota	-8459
▁Small	-8460
▁agents	-8461
▁25.	-8462
▁personality	-8463
ocratic	-8464
▁compilation	-8465
▁acknow	-8466
▁Hawaii	-8467
▁Hab	-8468
▁Universal	-8469
▁carrier	-8470
▁emerged	-8471
▁satellite	-8472
vy	-8473
▁CP	-8474
rehens	-8475
▁treaty	-8476
▁listing	-8477
▁Vo	-8478
ahn	-8479
FM	-8480
▁Theod	-8481
cons	-8482
▁recommended	-8483
▁Maj	-8484
▁grass	-8485
▁Mack	-8486
▁evening	-8487
sect	-8488
fecture	-8489
▁Ukraine	-8490
chi	-8491
▁grown	-8492
▁Brooklyn	-8493
▁graduate	-8494
oom	-8495
formance	-8496
Sc	-8497
▁1949	-8498
otton	-8499
▁scholar	-8500
▁Fictional	-8501
▁VI	-8502
▁CEO	-8503
▁cod	-8504
▁emergency	-8505
▁Napole	-8506
▁vast	-8507
▁interested	-8508
▁Season	-8509
▁huge	-8510
▁Rugby	-8511
▁Orleans	-8512
oyal	-8513
▁viewed	-8514
ouses	-8515
▁1952	-8516
ED	-8517
▁principles	-8518
▁Tu	-8519
▁parks	-8520
▁Jazz	-8521
▁equipped	-8522
auc	-8523
▁flights	-8524
▁FIFA	-8525
▁inner	-8526
▁Late	-8527
non	-8528
ails	-8529
izer	-8530
▁justice	-8531
abilities	-8532
▁profession	-8533
–6	-8534
▁vision	-8535
▁increases	-8536
▁signs	-8537
▁domain	-8538
▁Lithuan	-8539
iti	-8540
▁Singles	-8541
▁Chron	-8542
▁strict	-8543
▁Ukrain	-8544
▁wounded	-8545
▁branches	-8546
▁newspapers	-8547
usted	-8548
▁Lead	-8549
▁repr	-8550
▁rooms	-8551
▁destruction	-8552
▁provinces	-8553
osph	-8554
▁seventh	-8555
▁1953	-8556
inist	-8557
▁lingu	-8558
▁bird	-8559
▁Hitler	-8560
5).	-8561
uits	-8562
race	-8563
AP	-8564
▁Kon	-8565
ilst	-8566
▁participate	-8567
▁1954	-8568
▁continuous	-8569
avel	-8570
▁Sid	-8571
▁Ran	-8572
▁Frid	-8573
▁Defence	-8574
▁exhibition	-8575
▁anything	-8576
▁usage	-8577
▁dual	-8578
▁120	-8579
atabase	-8580
▁losses	-8581
▁Michel	-8582
▁Imp	-8583
▁Nev	-8584
apse	-8585
▁secure	-8586
▁Gill	-8587
▁concentration	-8588
brid	-8589
▁Cook	-8590
▁wine	-8591
rik	-8592
▁2018.	-8593
▁Capital	-8594
▁Stu	-8595
▁Burg	-8596
▁artillery	-8597
▁Background	-8598
inals	-8599
▁frequent	-8600
ultane	-8601
▁Associ	-8602
▁15.	-8603
▁Control	-8604
▁1998.	-8605
▁navig	-8606
▁metropolitan	-8607
▁Muhammad	-8608
▁Has	-8609
▁Romania	-8610
▁chapter	-8611
ivated	-8612
▁Originally	-8613
▁holid	-8614
▁AT	-8615
▁Return	-8616
▁assemb	-8617
▁175	-8618
▁Opera	-8619
itis	-8620
Star	-8621
▁Alban	-8622
▁raise	-8623
▁NHL	-8624
▁Arabic	-8625
▁designer	-8626
▁Foot	-8627
▁Pil	-8628
▁conj	-8629
acre	-8630
▁variant	-8631
▁2019.	-8632
▁Mind	-8633
▁experiences	-8634
▁Goth	-8635
▁hyper	-8636
▁Lov	-8637
▁shares	-8638
lie	-8639
▁liquid	-8640
▁Yugoslav	-8641
▁crash	-8642
▁extreme	-8643
▁170	-8644
HS	-8645
▁geomet	-8646
▁poems	-8647
▁Ni	-8648
▁Utah	-8649
▁alcohol	-8650
▁Mother	-8651
▁Clinton	-8652
▁Christians	-8653
▁canc	-8654
ders	-8655
▁shore	-8656
urrent	-8657
load	-8658
▁managers	-8659
▁ideal	-8660
▁maintenance	-8661
▁mac	-8662
edding	-8663
▁Microsoft	-8664
▁Literature	-8665
▁characterized	-8666
▁weekly	-8667
rose	-8668
uki	-8669
▁mob	-8670
▁painted	-8671
gow	-8672
▁Territory	-8673
▁lists	-8674
▁#1	-8675
▁Storm	-8676
▁electrical	-8677
▁1:	-8678
▁bear	-8679
▁appeal	-8680
▁Freedom	-8681
▁Maine	-8682
▁Construction	-8683
▁predecess	-8684
▁bes	-8685
▁Princip	-8686
uble	-8687
▁24.	-8688
▁indicated	-8689
▁gene	-8690
▁behavi	-8691
▁supporters	-8692
aired	-8693
▁Greater	-8694
▁agriculture	-8695
▁centers	-8696
▁defensive	-8697
▁Lost	-8698
▁turns	-8699
stery	-8700
orkshire	-8701
▁Protestant	-8702
▁Mi	-8703
asa	-8704
hum	-8705
ishers	-8706
▁Andy	-8707
▁completion	-8708
▁annually	-8709
▁Map	-8710
▁Tam	-8711
borne	-8712
inus	-8713
▁Invest	-8714
▁papers	-8715
▁Nicholas	-8716
▁tempor	-8717
▁Ay	-8718
ractions	-8719
ancouver	-8720
▁bronze	-8721
▁Primary	-8722
leton	-8723
▁finding	-8724
▁23.	-8725
har	-8726
▁heritage	-8727
▁Medicine	-8728
ashi	-8729
0),	-8730
andal	-8731
fire	-8732
▁°	-8733
▁catch	-8734
▁reserve	-8735
▁*	-8736
▁defence	-8737
▁Fitz	-8738
itter	-8739
▁Allied	-8740
▁joining	-8741
lease	-8742
▁Ce	-8743
forcement	-8744
▁falls	-8745
▁Parker	-8746
▁limits	-8747
▁drew	-8748
▁theater	-8749
▁filed	-8750
▁operator	-8751
▁26.	-8752
▁vide	-8753
▁jobs	-8754
▁poets	-8755
▁Ring	-8756
▁teach	-8757
▁zero	-8758
▁Colomb	-8759
▁od	-8760
▁Pont	-8761
▁surrounded	-8762
▁Hebrew	-8763
uin	-8764
▁Vic	-8765
olo	-8766
▁relation	-8767
▁Belgian	-8768
▁attracted	-8769
▁Yorkshire	-8770
▁preserved	-8771
▁Soul	-8772
▁Collins	-8773
▁license	-8774
▁Pir	-8775
▁underground	-8776
▁Mitchell	-8777
▁remember	-8778
▁Jerry	-8779
▁statistics	-8780
ishops	-8781
ère	-8782
▁gather	-8783
▁Systems	-8784
itime	-8785
▁Jonathan	-8786
▁challenge	-8787
▁bringing	-8788
ned	-8789
▁Eug	-8790
ifies	-8791
▁1997.	-8792
▁Nobel	-8793
-6	-8794
boy	-8795
hus	-8796
▁profile	-8797
▁Clar	-8798
▁Jefferson	-8799
▁47	-8800
▁dress	-8801
athy	-8802
▁Appl	-8803
▁involvement	-8804
Ph	-8805
▁recept	-8806
▁AR	-8807
▁Mans	-8808
nia	-8809
nex	-8810
bel	-8811
▁Caribbean	-8812
▁Gon	-8813
host	-8814
▁fled	-8815
▁recru	-8816
▁genetic	-8817
▁168	-8818
▁Pictures	-8819
▁16.	-8820
▁offensive	-8821
▁coaches	-8822
▁Gor	-8823
ricted	-8824
▁worship	-8825
▁knew	-8826
ework	-8827
Mar	-8828
▁Camer	-8829
▁RAF	-8830
▁Writers	-8831
east	-8832
▁soundtrack	-8833
ignment	-8834
▁shooting	-8835
▁denied	-8836
▁Chang	-8837
▁Hudson	-8838
acon	-8839
▁terminal	-8840
▁theories	-8841
rystal	-8842
▁indigenous	-8843
rowing	-8844
rus	-8845
▁dub	-8846
style	-8847
▁relationships	-8848
▁Barbara	-8849
▁involves	-8850
▁brown	-8851
▁Round	-8852
sea	-8853
▁traditionally	-8854
▁Blues	-8855
▁Wing	-8856
▁predomin	-8857
▁collaboration	-8858
cht	-8859
▁cabinet	-8860
▁mor	-8861
▁suburb	-8862
▁wrong	-8863
▁hundreds	-8864
▁Basketball	-8865
ST	-8866
▁27.	-8867
▁fest	-8868
▁loan	-8869
body	-8870
▁concerned	-8871
▁assembly	-8872
▁intention	-8873
▁continuing	-8874
▁partly	-8875
▁themes	-8876
▁Chairman	-8877
▁chair	-8878
▁machines	-8879
▁compete	-8880
▁1951	-8881
▁mathematics	-8882
▁22.	-8883
ohn	-8884
ancellor	-8885
▁Studio	-8886
▁Shah	-8887
▁roots	-8888
ported	-8889
▁Case	-8890
▁understand	-8891
▁spoke	-8892
▁thousand	-8893
▁resolution	-8894
▁Gun	-8895
▁Much	-8896
▁approval	-8897
bus	-8898
▁Woman	-8899
▁config	-8900
▁transmit	-8901
regation	-8902
▁childhood	-8903
▁Rank	-8904
▁Girls	-8905
▁Wor	-8906
▁drugs	-8907
▁Grey	-8908
▁thin	-8909
uations	-8910
▁Vancouver	-8911
▁detailed	-8912
▁Cher	-8913
▁Symphony	-8914
▁suicide	-8915
▁imperial	-8916
▁voters	-8917
▁partially	-8918
▁biography	-8919
▁Cob	-8920
▁infrastructure	-8921
▁Exper	-8922
▁fruit	-8923
▁publications	-8924
▁Player	-8925
▁easy	-8926
▁Type	-8927
▁Event	-8928
▁prosec	-8929
fish	-8930
▁Celt	-8931
▁victims	-8932
▁|	-8933
▁Fab	-8934
▁linear	-8935
▁substantial	-8936
▁Anti	-8937
jection	-8938
▁20.	-8939
itarian	-8940
▁resort	-8941
▁missions	-8942
▁spin	-8943
▁Isa	-8944
ania	-8945
ín	-8946
ensis	-8947
▁wire	-8948
uri	-8949
▁climb	-8950
▁orchestra	-8951
▁relief	-8952
▁passage	-8953
oga	-8954
▁Commons	-8955
▁Sarah	-8956
▁entering	-8957
▁neither	-8958
▁thing	-8959
▁begun	-8960
▁physics	-8961
▁finishing	-8962
amics	-8963
▁honour	-8964
42	-8965
▁Training	-8966
▁distinguished	-8967
velt	-8968
▁universe	-8969
Ind	-8970
▁Officer	-8971
pent	-8972
Hz	-8973
▁Tob	-8974
▁Hig	-8975
▁ocean	-8976
▁nomination	-8977
▁fighter	-8978
▁Verm	-8979
▁stayed	-8980
ushing	-8981
▁Note	-8982
▁dominant	-8983
▁generated	-8984
▁equation	-8985
▁Brist	-8986
▁organisation	-8987
▁Formula	-8988
▁apparently	-8989
▁immediate	-8990
▁Alice	-8991
▁Unit	-8992
▁Venez	-8993
▁Tak	-8994
GBT	-8995
▁ML	-8996
▁agencies	-8997
ML	-8998
9).	-8999
▁experimental	-9000
▁Nova	-9001
▁Jason	-9002
▁Cad	-9003
▁Fellow	-9004
▁Leban	-9005
▁Confederate	-9006
▁mechanical	-9007
udi	-9008
gie	-9009
▁dated	-9010
iration	-9011
▁unusual	-9012
▁root	-9013
eor	-9014
▁tanks	-9015
aun	-9016
▁Dra	-9017
onymous	-9018
▁bom	-9019
▁tow	-9020
▁exceed	-9021
auge	-9022
▁brig	-9023
▁mounted	-9024
▁corresponding	-9025
orous	-9026
formerly	-9027
▁Bird	-9028
ayan	-9029
▁Kur	-9030
▁pian	-9031
▁serial	-9032
▁Muslims	-9033
▁UE	-9034
ups	-9035
abil	-9036
▁Deaths	-9037
▁percentage	-9038
▁encouraged	-9039
▁depth	-9040
▁Pow	-9041
▁Flore	-9042
▁21.	-9043
igs	-9044
▁interpre	-9045
▁1988,	-9046
occ	-9047
▁Along	-9048
icity	-9049
▁journey	-9050
cker	-9051
elta	-9052
▁convicted	-9053
NS	-9054
▁discip	-9055
▁Ref	-9056
▁Side	-9057
▁truth	-9058
▁Communications	-9059
▁beach	-9060
▁Rico	-9061
▁symptoms	-9062
▁regime	-9063
incorporated	-9064
hour	-9065
break	-9066
-20	-9067
▁mechanism	-9068
▁Ton	-9069
designated	-9070
▁absence	-9071
weet	-9072
▁Carlos	-9073
▁Plot	-9074
▁casual	-9075
▁Hugh	-9076
▁airline	-9077
▁nucle	-9078
▁(6	-9079
othy	-9080
iveness	-9081
▁apply	-9082
▁Urban	-9083
▁diver	-9084
▁dominated	-9085
41	-9086
via	-9087
▁publicly	-9088
▁Dragon	-9089
▁businessman	-9090
▁eat	-9091
▁Tib	-9092
▁1996.	-9093
▁random	-9094
illo	-9095
▁param	-9096
▁Baptist	-9097
▁benefits	-9098
▁Kan	-9099
▁formula	-9100
▁parliamentary	-9101
▁Romanian	-9102
AL	-9103
▁Glen	-9104
▁Hunter	-9105
▁Bomb	-9106
▁Page	-9107
▁phrase	-9108
▁Typ	-9109
▁boundaries	-9110
▁wooden	-9111
ser	-9112
▁Evans	-9113
▁Conn	-9114
▁SR	-9115
▁Hold	-9116
▁Griff	-9117
▁Until	-9118
én	-9119
▁superior	-9120
▁elder	-9121
▁departure	-9122
▁surn	-9123
rity	-9124
▁movies	-9125
▁Heavy	-9126
MC	-9127
▁Action	-9128
▁Terry	-9129
▁kilomet	-9130
▁statue	-9131
▁voting	-9132
▁Rio	-9133
▁pregn	-9134
▁chamber	-9135
ugs	-9136
▁rit	-9137
type	-9138
▁Cand	-9139
mi	-9140
▁1986,	-9141
lik	-9142
appro	-9143
▁champions	-9144
fiction	-9145
▁borders	-9146
▁ur	-9147
cribed	-9148
▁locomotives	-9149
lon	-9150
▁theorem	-9151
ester	-9152
▁writes	-9153
olition	-9154
▁Clare	-9155
.'	-9156
▁platforms	-9157
arrier	-9158
onom	-9159
▁expensive	-9160
▁18.	-9161
akespe	-9162
▁Roose	-9163
▁rarely	-9164
olar	-9165
▁moves	-9166
▁activist	-9167
oard	-9168
enger	-9169
trans	-9170
▁kick	-9171
▁Peninsula	-9172
▁41	-9173
▁Ko	-9174
▁identify	-9175
enburg	-9176
angle	-9177
▁radical	-9178
▁surgery	-9179
mate	-9180
▁Nord	-9181
MI	-9182
▁wick	-9183
▁Indonesia	-9184
sor	-9185
▁integrated	-9186
▁possibility	-9187
▁1987,	-9188
▁Clay	-9189
▁remove	-9190
▁safe	-9191
▁Alberta	-9192
▁produces	-9193
▁Ukrainian	-9194
tha	-9195
▁minority	-9196
▁MS	-9197
▁Carm	-9198
▁Ral	-9199
▁window	-9200
78	-9201
▁ruling	-9202
▁hip	-9203
▁variable	-9204
▁Know	-9205
▁stim	-9206
▁Actress	-9207
acle	-9208
▁Ric	-9209
▁essential	-9210
astery	-9211
▁blocks	-9212
▁remainder	-9213
▁Theater	-9214
▁debt	-9215
rors	-9216
ixon	-9217
cules	-9218
▁layer	-9219
▁junior	-9220
Can	-9221
▁Byzantine	-9222
▁appropriate	-9223
▁simultane	-9224
bach	-9225
▁Hem	-9226
ör	-9227
▁opponent	-9228
▁Larry	-9229
▁Interstate	-9230
▁Tig	-9231
▁Steel	-9232
GA	-9233
ni	-9234
ulu	-9235
▁sight	-9236
▁Near	-9237
▁index	-9238
▁soccer	-9239
▁supplies	-9240
▁1936	-9241
▁LGBT	-9242
rock	-9243
)"	-9244
▁Walt	-9245
▁Stevens	-9246
▁stable	-9247
▁tribe	-9248
▁implemented	-9249
▁reduction	-9250
▁originated	-9251
▁discontin	-9252
▁Meanwhile	-9253
▁mal	-9254
▁LP	-9255
▁1918	-9256
▁Appe	-9257
raham	-9258
rency	-9259
▁Limited	-9260
▁Branch	-9261
▁Fr	-9262
▁patron	-9263
▁publisher	-9264
▁drawing	-9265
▁instrumental	-9266
hill	-9267
▁Industrial	-9268
▁bacter	-9269
▁advis	-9270
ocation	-9271
writers	-9272
▁id	-9273
▁metres	-9274
hematic	-9275
▁Roosevelt	-9276
▁gradu	-9277
▁operational	-9278
ocked	-9279
akespeare	-9280
▁threatened	-9281
▁drummer	-9282
▁happened	-9283
▁patrol	-9284
zi	-9285
stance	-9286
▁Monte	-9287
rating	-9288
bes	-9289
owski	-9290
▁error	-9291
▁Springs	-9292
▁choose	-9293
▁arrangement	-9294
▁vel	-9295
▁theat	-9296
▁speaking	-9297
▁illegal	-9298
roph	-9299
▁constituency	-9300
▁17.	-9301
▁Afghanistan	-9302
▁alliance	-9303
▁soldier	-9304
▁Deputy	-9305
geon	-9306
ivan	-9307
ersed	-9308
▁Socialist	-9309
▁ranks	-9310
▁Shel	-9311
anner	-9312
▁55	-9313
▁claiming	-9314
▁practical	-9315
▁Days	-9316
43	-9317
otan	-9318
▁hal	-9319
▁Admiral	-9320
▁argument	-9321
RO	-9322
enberg	-9323
▁Hunt	-9324
▁Len	-9325
DF	-9326
▁28.	-9327
scale	-9328
orf	-9329
▁acceler	-9330
dest	-9331
▁origins	-9332
▁Portland	-9333
▁maps	-9334
ubb	-9335
▁teachers	-9336
feld	-9337
amine	-9338
▁().	-9339
▁turning	-9340
▁calendar	-9341
sters	-9342
▁Altern	-9343
▁occasions	-9344
▁heir	-9345
▁oblig	-9346
▁Bond	-9347
▁Sultan	-9348
▁rebell	-9349
▁monument	-9350
▁Venezuel	-9351
estone	-9352
winning	-9353
ructions	-9354
▁send	-9355
ificial	-9356
▁Private	-9357
▁Ye	-9358
▁interpretation	-9359
imensional	-9360
▁Plant	-9361
▁Pad	-9362
olia	-9363
▁Aviation	-9364
▁USS	-9365
▁Stars	-9366
▁employment	-9367
icip	-9368
▁Jun	-9369
▁intent	-9370
▁Lloyd	-9371
▁absol	-9372
▁patterns	-9373
possible	-9374
itary	-9375
▁$5	-9376
▁Glasgow	-9377
▁explo	-9378
▁competed	-9379
▁Bour	-9380
▁indicates	-9381
▁Lank	-9382
▁advertising	-9383
▁Get	-9384
▁lov	-9385
▁DJ	-9386
▁Broadcasting	-9387
77	-9388
▁horses	-9389
▁ceased	-9390
▁AP	-9391
▁Malaysia	-9392
▁Prote	-9393
▁ages	-9394
▁Minor	-9395
▁Cond	-9396
▁Tag	-9397
▁moral	-9398
ingly	-9399
▁pseud	-9400
▁sentence	-9401
berry	-9402
cussion	-9403
▁ministers	-9404
▁1985,	-9405
▁balance	-9406
▁Mathemat	-9407
▁regiment	-9408
▁FA	-9409
▁Norfolk	-9410
▁Therefore	-9411
oda	-9412
helm	-9413
▁Snow	-9414
No	-9415
▁sudden	-9416
▁Pul	-9417
bow	-9418
omorph	-9419
German	-9420
archers	-9421
eas	-9422
▁driven	-9423
acht	-9424
▁false	-9425
▁Fight	-9426
▁depicted	-9427
▁Salv	-9428
▁Herbert	-9429
▁Kra	-9430
▁Knights	-9431
▁Reception	-9432
▁broadcasting	-9433
▁injuries	-9434
▁Amaz	-9435
▁2020.	-9436
▁1938	-9437
▁Diam	-9438
▁collections	-9439
▁cousin	-9440
vol	-9441
▁Gate	-9442
▁Fisher	-9443
▁Mall	-9444
▁merger	-9445
▁tens	-9446
▁coup	-9447
▁1995.	-9448
election	-9449
▁Bristol	-9450
▁mine	-9451
▁bat	-9452
▁Shakespeare	-9453
arest	-9454
▁crimes	-9455
▁swit	-9456
ethe	-9457
▁circle	-9458
▁19.	-9459
phal	-9460
▁corporate	-9461
▁Abbey	-9462
▁rhythm	-9463
etary	-9464
▁wet	-9465
46	-9466
▁Harold	-9467
▁conversion	-9468
▁vic	-9469
yers	-9470
▁Rogers	-9471
▁conventional	-9472
▁Examples	-9473
▁tunnel	-9474
▁UEFA	-9475
▁gets	-9476
▁defeating	-9477
▁dim	-9478
▁locally	-9479
▁canal	-9480
▁matters	-9481
▁Dest	-9482
▁Delta	-9483
▁trend	-9484
▁Ottawa	-9485
harm	-9486
asant	-9487
▁Batman	-9488
▁fundamental	-9489
▁Site	-9490
▁(191	-9491
CS	-9492
istance	-9493
▁Turner	-9494
▁settlements	-9495
-201	-9496
▁preferred	-9497
▁enjoyed	-9498
▁Senior	-9499
▁restaurant	-9500
▁boats	-9501
▁Grad	-9502
▁diff	-9503
▁helicop	-9504
▁researchers	-9505
▁substit	-9506
lington	-9507
▁fat	-9508
▁diet	-9509
▁Rangers	-9510
▁supports	-9511
▁Dod	-9512
▁categories	-9513
▁Alt	-9514
▁demolished	-9515
▁Lion	-9516
▁Victorian	-9517
▁tied	-9518
▁instruct	-9519
▁Kirk	-9520
EE	-9521
▁fitted	-9522
▁cul	-9523
▁oxygen	-9524
annon	-9525
▁vector	-9526
▁manufactured	-9527
▁dispute	-9528
mun	-9529
ifican	-9530
▁daughters	-9531
▁Phoenix	-9532
gun	-9533
Eng	-9534
▁Shortly	-9535
▁1937	-9536
cut	-9537
▁manufacturers	-9538
▁civilian	-9539
▁Om	-9540
▁Lore	-9541
▁industries	-9542
▁admin	-9543
▁Oliver	-9544
pen	-9545
▁Ga	-9546
▁Stre	-9547
icas	-9548
▁Legislative	-9549
▁editions	-9550
▁Bald	-9551
hai	-9552
▁persu	-9553
▁Nav	-9554
▁shift	-9555
▁connecting	-9556
▁horiz	-9557
▁coalition	-9558
▁meetings	-9559
ificance	-9560
▁Harbor	-9561
▁evolved	-9562
▁desire	-9563
▁profit	-9564
ouncill	-9565
▁vessel	-9566
▁py	-9567
▁appointment	-9568
aration	-9569
▁annex	-9570
chers	-9571
▁Cuba	-9572
▁Nature	-9573
ften	-9574
▁diameter	-9575
▁Past	-9576
▁colors	-9577
▁identical	-9578
▁Athens	-9579
isations	-9580
▁afterwards	-9581
▁Toy	-9582
▁ben	-9583
▁Jama	-9584
encing	-9585
▁Publications	-9586
oustic	-9587
porter	-9588
▁reception	-9589
bb	-9590
95	-9591
▁suffering	-9592
page	-9593
Be	-9594
▁Alumni	-9595
▁Spider	-9596
strong	-9597
eria	-9598
fts	-9599
▁forests	-9600
▁circumstances	-9601
aris	-9602
▁Doc	-9603
▁Poet	-9604
▁prize	-9605
▁closer	-9606
▁Herman	-9607
WA	-9608
▁turb	-9609
▁Judge	-9610
▁lob	-9611
rena	-9612
▁magazines	-9613
profit	-9614
▁debuted	-9615
▁customers	-9616
▁Lad	-9617
▁algebra	-9618
▁upgrad	-9619
▁Bert	-9620
▁Pack	-9621
world	-9622
▁Anal	-9623
minster	-9624
▁writings	-9625
▁slaves	-9626
▁exposure	-9627
▁Delaware	-9628
iper	-9629
▁concerts	-9630
▁romantic	-9631
▁Lock	-9632
▁Syn	-9633
▁proof	-9634
▁Crime	-9635
▁Ivan	-9636
▁Cer	-9637
▁concrete	-9638
▁dream	-9639
▁displayed	-9640
▁outer	-9641
▁Ple	-9642
▁immigrants	-9643
▁everything	-9644
▁lowest	-9645
▁urg	-9646
▁grav	-9647
▁Magic	-9648
▁measured	-9649
▁Gray	-9650
ags	-9651
▁(15	-9652
teenth	-9653
esis	-9654
CAA	-9655
▁Independence	-9656
ls	-9657
▁Champion	-9658
ophical	-9659
▁landscape	-9660
▁Saints	-9661
ners	-9662
eters	-9663
▁Stage	-9664
▁golf	-9665
iture	-9666
▁Horse	-9667
▁Frances	-9668
▁suitable	-9669
▁congress	-9670
▁Nam	-9671
▁manufacturer	-9672
▁Data	-9673
▁hunting	-9674
▁meters	-9675
▁Poly	-9676
▁1,000	-9677
▁Stuart	-9678
▁Fif	-9679
riel	-9680
▁prices	-9681
▁ceremon	-9682
▁Apoll	-9683
hu	-9684
▁compens	-9685
flu	-9686
▁tell	-9687
▁worn	-9688
▁Lan	-9689
▁exposed	-9690
▁Vincent	-9691
▁Recip	-9692
▁communications	-9693
▁slave	-9694
▁1984,	-9695
▁Iranian	-9696
▁salt	-9697
▁explicit	-9698
▁1994.	-9699
▁missile	-9700
▁tool	-9701
▁submarine	-9702
▁danc	-9703
▁acknowled	-9704
▁undert	-9705
▁patient	-9706
▁unf	-9707
▁rescue	-9708
▁marketing	-9709
▁decisions	-9710
▁Guine	-9711
▁1935	-9712
▁discussed	-9713
▁seeking	-9714
▁radiation	-9715
West	-9716
▁bon	-9717
▁les	-9718
rection	-9719
▁Trinity	-9720
dess	-9721
▁representatives	-9722
▁orbit	-9723
▁steps	-9724
ogan	-9725
▁illness	-9726
idal	-9727
▁Marx	-9728
▁variation	-9729
▁else	-9730
ailand	-9731
▁Ridge	-9732
▁IBM	-9733
▁suspended	-9734
▁furn	-9735
▁connections	-9736
▁magnetic	-9737
▁0.0	-9738
▁1914	-9739
igo	-9740
▁rebuilt	-9741
▁ruler	-9742
keley	-9743
▁Performance	-9744
▁charter	-9745
▁Pun	-9746
celand	-9747
▁propag	-9748
ME	-9749
▁Tol	-9750
▁struggle	-9751
98	-9752
▁adults	-9753
released	-9754
▁Pant	-9755
▁ready	-9756
▁sovere	-9757
▁assets	-9758
▁labour	-9759
All	-9760
▁EU	-9761
▁Occ	-9762
▁1910	-9763
AD	-9764
▁subsidiary	-9765
uzz	-9766
▁Charlotte	-9767
▁reportedly	-9768
▁Dub	-9769
wright	-9770
▁computers	-9771
As	-9772
▁las	-9773
▁meets	-9774
▁gate	-9775
appy	-9776
mo	-9777
▁Lie	-9778
comp	-9779
pled	-9780
maker	-9781
osaur	-9782
▁coat	-9783
▁Maced	-9784
offic	-9785
itic	-9786
▁cavalry	-9787
▁Parish	-9788
▁gone	-9789
▁Pel	-9790
RS	-9791
▁angle	-9792
▁constitutional	-9793
▁Anglican	-9794
▁Start	-9795
▁Zone	-9796
▁Buffalo	-9797
ilding	-9798
▁Ru	-9799
▁Sche	-9800
▁discussion	-9801
▁Technical	-9802
▁distinction	-9803
▁matrix	-9804
free	-9805
▁Philippine	-9806
speed	-9807
▁43	-9808
▁clearly	-9809
▁Grammy	-9810
graduate	-9811
eta	-9812
▁wings	-9813
▁cyl	-9814
wig	-9815
▁efficient	-9816
▁Keith	-9817
▁anyone	-9818
▁speakers	-9819
opes	-9820
stad	-9821
▁Prof	-9822
▁Curt	-9823
rehensive	-9824
▁1980,	-9825
emed	-9826
▁helping	-9827
▁essay	-9828
▁premi	-9829
▁Bath	-9830
▁Joan	-9831
▁Bud	-9832
▁aimed	-9833
▁sample	-9834
▁Chall	-9835
▁syndrome	-9836
▁Nevada	-9837
▁colle	-9838
▁commanded	-9839
▁neutral	-9840
▁Ralph	-9841
▁signals	-9842
duces	-9843
pol	-9844
ilty	-9845
▁Dennis	-9846
▁Robin	-9847
▁riding	-9848
▁dialect	-9849
▁monitor	-9850
▁Original	-9851
▁artistic	-9852
▁revenue	-9853
▁fantasy	-9854
▁els	-9855
emies	-9856
castle	-9857
arged	-9858
–193	-9859
▁Renaissance	-9860
rary	-9861
▁dangerous	-9862
tical	-9863
▁keeping	-9864
▁hardware	-9865
▁hearing	-9866
▁Sic	-9867
▁Furthermore	-9868
iko	-9869
icial	-9870
▁horror	-9871
osy	-9872
ju	-9873
▁Cinc	-9874
▁1933	-9875
▁logo	-9876
▁Tang	-9877
▁experiments	-9878
▁panel	-9879
▁recovered	-9880
foot	-9881
▁assum	-9882
speaking	-9883
▁bright	-9884
orious	-9885
rove	-9886
▁hat	-9887
amese	-9888
▁contribution	-9889
▁Milan	-9890
▁revised	-9891
▁empire	-9892
ogle	-9893
▁expert	-9894
ribution	-9895
▁(10	-9896
ophone	-9897
▁exclusively	-9898
▁solar	-9899
▁excell	-9900
▁Osc	-9901
▁behalf	-9902
▁avo	-9903
archy	-9904
▁advice	-9905
ugu	-9906
▁competitions	-9907
▁facilit	-9908
acts	-9909
▁kings	-9910
▁analog	-9911
▁execution	-9912
asi	-9913
▁amongst	-9914
▁elsewhere	-9915
▁neck	-9916
▁wearing	-9917
▁meat	-9918
ospel	-9919
▁retreat	-9920
▁Catherine	-9921
▁Pin	-9922
▁Drive	-9923
▁Classic	-9924
▁bid	-9925
▁Discography	-9926
▁Shang	-9927
▁sounds	-9928
▁Had	-9929
eston	-9930
▁tribute	-9931
▁insurance	-9932
▁erected	-9933
aments	-9934
▁agree	-9935
▁gal	-9936
▁novelist	-9937
▁palace	-9938
▁Student	-9939
quir	-9940
▁survive	-9941
RT	-9942
▁Hob	-9943
85	-9944
▁empt	-9945
▁gay	-9946
opl	-9947
▁legislature	-9948
▁traveled	-9949
▁Bron	-9950
ele	-9951
▁Serge	-9952
▁influences	-9953
▁fur	-9954
ching	-9955
mediate	-9956
intendo	-9957
For	-9958
▁Parks	-9959
▁shopping	-9960
▁peaked	-9961
ierra	-9962
▁clock	-9963
▁Those	-9964
▁guide	-9965
rost	-9966
▁Joy	-9967
▁Abraham	-9968
▁clim	-9969
▁1983,	-9970
▁eggs	-9971
onomy	-9972
▁demonstrated	-9973
▁characteristic	-9974
▁29.	-9975
▁View	-9976
▁52	-9977
▁1929	-9978
itable	-9979
uction	-9980
▁Companies	-9981
▁historically	-9982
▁ty	-9983
omon	-9984
▁incom	-9985
▁Vel	-9986
▁Manit	-9987
▁Speed	-9988
▁donated	-9989
▁abuse	-9990
▁explan	-9991
▁Section	-9992
▁Pay	-9993
▁tries	-9994
▁tort	-9995
▁1890	-9996
▁cancelled	-9997
▁credits	-9998
▁reducing	-9999
▁banned	-10000
▁restoration	-10001
▁escort	-10002
▁repair	-10003
urst	-10004
▁gard	-10005
▁Perry	-10006
▁radar	-10007
mates	-10008
▁Beh	-10009
▁Malt	-10010
▁files	-10011
▁Newton	-10012
▁rising	-10013
▁1982,	-10014
▁Chand	-10015
▁responded	-10016
▁clothing	-10017
gence	-10018
ieth	-10019
making	-10020
▁accord	-10021
▁1993.	-10022
▁sessions	-10023
py	-10024
imir	-10025
▁Sor	-10026
▁Thailand	-10027
▁Bobby	-10028
hent	-10029
▁600	-10030
LP	-10031
▁possession	-10032
elect	-10033
Mus	-10034
▁gear	-10035
▁Bass	-10036
▁interchange	-10037
iler	-10038
istant	-10039
▁Carn	-10040
reck	-10041
▁Steven	-10042
lades	-10043
▁encl	-10044
gom	-10045
▁Salt	-10046
pres	-10047
▁sequel	-10048
tes	-10049
Col	-10050
agre	-10051
Con	-10052
▁Observ	-10053
othe	-10054
▁Buildings	-10055
▁recommend	-10056
▁phone	-10057
mith	-10058
▁Grove	-10059
iffer	-10060
▁Ax	-10061
▁physician	-10062
▁participation	-10063
▁Vlad	-10064
▁1992.	-10065
▁sentenced	-10066
▁Ages	-10067
▁NASA	-10068
▁Arc	-10069
aze	-10070
▁Yam	-10071
▁1917	-10072
▁negotiations	-10073
▁lose	-10074
▁acted	-10075
erk	-10076
▁philosopher	-10077
▁establishing	-10078
▁unlike	-10079
▁Cour	-10080
▁unp	-10081
▁disorder	-10082
innati	-10083
▁Coal	-10084
▁bases	-10085
ibn	-10086
▁twin	-10087
▁Campaign	-10088
arus	-10089
▁coins	-10090
▁restricted	-10091
umer	-10092
ido	-10093
▁Plat	-10094
▁(0.	-10095
ović	-10096
▁Number	-10097
asks	-10098
▁Yale	-10099
terior	-10100
sequently	-10101
▁Religion	-10102
aco	-10103
▁summ	-10104
▁falling	-10105
▁inducted	-10106
▁mathematic	-10107
▁exercise	-10108
▁Friday	-10109
▁junction	-10110
▁spending	-10111
onds	-10112
▁chrom	-10113
▁Nintendo	-10114
▁convin	-10115
▁Website	-10116
ulating	-10117
achment	-10118
▁Ground	-10119
▁colonies	-10120
▁Arnold	-10121
▁Mut	-10122
estyle	-10123
▁Slav	-10124
▁graphics	-10125
▁Bes	-10126
gener	-10127
whe	-10128
rams	-10129
▁Chen	-10130
▁alter	-10131
net	-10132
▁trap	-10133
▁Brew	-10134
▁touring	-10135
▁Soon	-10136
overy	-10137
uable	-10138
▁1945,	-10139
▁Hein	-10140
▁thirty	-10141
▁Aircraft	-10142
▁concepts	-10143
Pro	-10144
▁essentially	-10145
atra	-10146
▁Ing	-10147
▁diverse	-10148
ortion	-10149
▁Craig	-10150
▁30.	-10151
▁atmosphere	-10152
▁Bruns	-10153
▁detect	-10154
only	-10155
▁Throughout	-10156
▁hence	-10157
▁rub	-10158
▁Ara	-10159
▁1979,	-10160
▁Future	-10161
▁mo	-10162
▁Movie	-10163
igrated	-10164
▁toured	-10165
math	-10166
▁cash	-10167
▁deployed	-10168
▁implementation	-10169
isp	-10170
▁penalty	-10171
▁whilst	-10172
pm	-10173
▁revival	-10174
▁Prefecture	-10175
▁Luis	-10176
▁Article	-10177
▁1934	-10178
ocket	-10179
ffee	-10180
▁nit	-10181
▁visiting	-10182
▁ris	-10183
▁Holland	-10184
▁announce	-10185
▁eleven	-10186
▁Right	-10187
This	-10188
▁fert	-10189
▁1990.	-10190
▁designation	-10191
▁pull	-10192
otyp	-10193
▁BCE	-10194
▁Iceland	-10195
▁Friends	-10196
▁Chel	-10197
56	-10198
▁Gilbert	-10199
▁Where	-10200
▁conscious	-10201
▁intersection	-10202
▁Lenn	-10203
▁giant	-10204
▁Ghost	-10205
▁reven	-10206
▁voiced	-10207
▁Banglades	-10208
▁Racing	-10209
▁manga	-10210
▁Cou	-10211
rys	-10212
▁Deep	-10213
ounsel	-10214
▁Eddie	-10215
▁1880	-10216
▁usual	-10217
▁Intelligence	-10218
encer	-10219
▁evil	-10220
▁autob	-10221
▁vul	-10222
ibraries	-10223
▁strategic	-10224
▁premiered	-10225
▁Treaties	-10226
▁guar	-10227
▁scientist	-10228
▁farmers	-10229
▁Students	-10230
▁Ferr	-10231
▁regulations	-10232
▁Wallace	-10233
phan	-10234
▁tub	-10235
atche	-10236
▁1991.	-10237
raska	-10238
▁Lear	-10239
▁describing	-10240
went	-10241
▁jurisdiction	-10242
iliation	-10243
▁therapy	-10244
▁horn	-10245
▁camps	-10246
▁earthqu	-10247
▁venue	-10248
▁judges	-10249
▁Pearl	-10250
88	-10251
.”	-10252
▁rum	-10253
▁restaurants	-10254
▁relocated	-10255
▁Democrat	-10256
▁cultures	-10257
▁Cincinnati	-10258
▁algorithm	-10259
▁Berkeley	-10260
▁tons	-10261
▁conven	-10262
▁Boeing	-10263
▁uncle	-10264
▁tenure	-10265
def	-10266
▁Archae	-10267
▁1932	-10268
▁wider	-10269
▁Encyclopedia	-10270
herent	-10271
▁Edwards	-10272
▁opportunities	-10273
▁gross	-10274
▁biological	-10275
▁Vegas	-10276
▁innings	-10277
▁violent	-10278
▁Ib	-10279
▁sugar	-10280
▁marks	-10281
▁tourist	-10282
▁Hope	-10283
▁Mason	-10284
▁concerning	-10285
▁1000	-10286
▁breaking	-10287
▁Hughes	-10288
▁1970,	-10289
▁Nep	-10290
▁Gay	-10291
▁cargo	-10292
asm	-10293
mill	-10294
that	-10295
▁Trump	-10296
▁significance	-10297
▁trials	-10298
▁Campus	-10299
▁wrestling	-10300
▁bridges	-10301
▁CS	-10302
▁Susan	-10303
▁mamm	-10304
▁foss	-10305
▁Lakes	-10306
▁provision	-10307
▁1972,	-10308
employ	-10309
▁1981,	-10310
original	-10311
▁SP	-10312
▁taxes	-10313
▁schedule	-10314
▁Northwest	-10315
▁Environmental	-10316
olics	-10317
▁deriv	-10318
▁nut	-10319
▁participants	-10320
▁unsuccessful	-10321
▁amateur	-10322
▁depression	-10323
▁fib	-10324
▁shops	-10325
▁conservation	-10326
▁rid	-10327
▁dismissed	-10328
▁Harvey	-10329
▁crossed	-10330
▁vertical	-10331
▁hope	-10332
▁licensed	-10333
▁powered	-10334
▁Bulgar	-10335
ulum	-10336
▁keyboards	-10337
▁permitted	-10338
▁attractions	-10339
▁Initially	-10340
core	-10341
▁mythology	-10342
▁Gas	-10343
▁comparison	-10344
▁winds	-10345
▁Prop	-10346
▁176	-10347
▁load	-10348
case	-10349
▁particles	-10350
▁Wonder	-10351
▁tape	-10352
▁cartoon	-10353
▁sket	-10354
tr	-10355
▁1974,	-10356
▁Transit	-10357
▁amounts	-10358
▁sees	-10359
▁percussion	-10360
▁Adv	-10361
▁exactly	-10362
▁pictures	-10363
uez	-10364
ipped	-10365
uclear	-10366
▁mainstream	-10367
▁drag	-10368
▁removal	-10369
▁notice	-10370
▁fold	-10371
avery	-10372
ovakia	-10373
▁1928	-10374
▁1968,	-10375
itol	-10376
tains	-10377
▁tribut	-10378
▁murdered	-10379
▁Sox	-10380
eto	-10381
ennial	-10382
▁ninet	-10383
▁CN	-10384
uka	-10385
▁asc	-10386
eo	-10387
▁delivery	-10388
onda	-10389
▁Brunswick	-10390
▁deck	-10391
▁qualified	-10392
▁Shaw	-10393
▁strengthen	-10394
essed	-10395
▁alternate	-10396
ulus	-10397
▁condem	-10398
▁fix	-10399
▁Dictionary	-10400
▁Any	-10401
▁unless	-10402
owed	-10403
avia	-10404
▁minute	-10405
▁ju	-10406
▁Kil	-10407
▁Neil	-10408
icism	-10409
▁diseases	-10410
care	-10411
▁Bros	-10412
▁collapse	-10413
▁1922	-10414
▁landed	-10415
iji	-10416
On	-10417
▁Revolutionary	-10418
fted	-10419
97	-10420
▁OS	-10421
▁marine	-10422
▁slowly	-10423
etta	-10424
▁elementary	-10425
▁perceived	-10426
▁1975,	-10427
oni	-10428
00,	-10429
▁Leo	-10430
▁neuro	-10431
▁Classical	-10432
▁Next	-10433
▁argues	-10434
▁swimming	-10435
▁Helen	-10436
▁Giants	-10437
▁variations	-10438
▁insect	-10439
▁cm	-10440
▁fluid	-10441
▁Gust	-10442
front	-10443
▁eliminated	-10444
oka	-10445
▁facing	-10446
My	-10447
▁Pent	-10448
▁ru	-10449
▁eighth	-10450
▁faster	-10451
urring	-10452
▁excav	-10453
avan	-10454
▁merchant	-10455
▁rig	-10456
hl	-10457
Wh	-10458
hero	-10459
Am	-10460
▁Operations	-10461
▁evac	-10462
▁Mann	-10463
▁partial	-10464
▁uncertain	-10465
▁ongoing	-10466
levard	-10467
▁Raymond	-10468
stand	-10469
▁loop	-10470
▁acquisition	-10471
▁plain	-10472
▁reforms	-10473
▁Liberty	-10474
▁Nebraska	-10475
▁inhib	-10476
▁Madrid	-10477
opal	-10478
▁(2005)	-10479
▁Friedrich	-10480
▁seed	-10481
minute	-10482
▁tone	-10483
cia	-10484
▁elevation	-10485
▁2021.	-10486
songwriter	-10487
▁impossible	-10488
iri	-10489
▁Lords	-10490
▁procedure	-10491
▁Sull	-10492
anion	-10493
▁touchdown	-10494
▁1924	-10495
▁Ori	-10496
▁wealthy	-10497
▁pip	-10498
apped	-10499
▁Rus	-10500
▁UC	-10501
▁punk	-10502
high	-10503
▁videos	-10504
▁Archbishop	-10505
▁Ernest	-10506
agonist	-10507
▁Henri	-10508
▁Patt	-10509
▁referring	-10510
disc	-10511
Station	-10512
▁instruction	-10513
▁hear	-10514
▁Exchange	-10515
▁commented	-10516
▁buses	-10517
isode	-10518
▁mines	-10519
▁Dale	-10520
idad	-10521
▁Survey	-10522
quer	-10523
▁Philosophy	-10524
viously	-10525
▁symmet	-10526
urbs	-10527
▁(2004)	-10528
▁fab	-10529
▁legislative	-10530
▁studying	-10531
▁3-	-10532
▁Gw	-10533
▁invented	-10534
▁Wilhelm	-10535
▁jum	-10536
▁Policy	-10537
▁warfare	-10538
▁Bright	-10539
cester	-10540
▁Hamm	-10541
alg	-10542
▁cattle	-10543
amo	-10544
▁tube	-10545
▁Marqu	-10546
▁Kle	-10547
▁tox	-10548
▁controls	-10549
raud	-10550
▁breeding	-10551
▁Ronald	-10552
▁logic	-10553
▁feud	-10554
▁Actor	-10555
gomery	-10556
ovo	-10557
▁denomin	-10558
él	-10559
▁stead	-10560
▁Josh	-10561
zing	-10562
▁Tun	-10563
▁Ethiop	-10564
▁closing	-10565
▁tie	-10566
▁Yellow	-10567
▁hybrid	-10568
▁windows	-10569
▁youngest	-10570
▁waste	-10571
▁anime	-10572
.),	-10573
▁mail	-10574
▁Singh	-10575
oro	-10576
▁Aber	-10577
UK	-10578
▁tourism	-10579
caster	-10580
▁ing	-10581
ión	-10582
▁charity	-10583
▁volt	-10584
86	-10585
▁Gregory	-10586
sa	-10587
▁understood	-10588
▁Kap	-10589
▁mainland	-10590
▁lieutenant	-10591
▁distinctive	-10592
▁siege	-10593
▁NCAA	-10594
▁1931	-10595
▁1976,	-10596
arr	-10597
▁orb	-10598
▁enemies	-10599
▁expand	-10600
▁Sr	-10601
53	-10602
▁consumption	-10603
▁Ted	-10604
▁Sut	-10605
▁difficulty	-10606
▁Arena	-10607
▁Butler	-10608
amation	-10609
▁torped	-10610
▁campaigns	-10611
Ad	-10612
▁Manitoba	-10613
odium	-10614
oirs	-10615
sis	-10616
▁attempting	-10617
▁pitcher	-10618
emble	-10619
▁legacy	-10620
▁Machine	-10621
▁Adela	-10622
▁devoted	-10623
▁Serbia	-10624
▁Warri	-10625
▁Players	-10626
▁symp	-10627
▁surviv	-10628
▁waves	-10629
▁masc	-10630
▁Reform	-10631
ibilities	-10632
May	-10633
▁thereafter	-10634
▁Say	-10635
▁Popular	-10636
▁Lamb	-10637
▁Mills	-10638
▁weekend	-10639
▁gauge	-10640
▁Franç	-10641
▁Treas	-10642
▁virus	-10643
▁Fiction	-10644
▁Southeast	-10645
▁journalists	-10646
▁initiated	-10647
▁pist	-10648
ean	-10649
▁Cars	-10650
▁Mend	-10651
▁martial	-10652
▁Got	-10653
▁Gur	-10654
▁nickname	-10655
▁Nine	-10656
ubs	-10657
▁Drag	-10658
aho	-10659
omp	-10660
▁Madison	-10661
▁10,000	-10662
▁Oil	-10663
▁Serbian	-10664
▁sponsored	-10665
▁permission	-10666
▁Eagle	-10667
▁Fell	-10668
▁Lem	-10669
▁Princ	-10670
asia	-10671
▁1969,	-10672
▁Napoleon	-10673
haw	-10674
▁Quest	-10675
▁deputy	-10676
phabet	-10677
▁Recipients	-10678
RI	-10679
lay	-10680
▁Somers	-10681
▁Oz	-10682
▁Gang	-10683
▁extend	-10684
▁inspiration	-10685
▁ranges	-10686
tic	-10687
▁sam	-10688
▁Hav	-10689
▁kit	-10690
▁Commissioner	-10691
▁recalled	-10692
▁Spec	-10693
▁Westminster	-10694
▁competitive	-10695
▁Mak	-10696
▁universal	-10697
▁sect	-10698
stown	-10699
▁signing	-10700
▁tel	-10701
GM	-10702
▁clar	-10703
▁Lag	-10704
▁multipl	-10705
▁1978,	-10706
▁Chapel	-10707
white	-10708
87	-10709
▁options	-10710
▁Having	-10711
▁quantum	-10712
▁Montgomery	-10713
▁creative	-10714
▁Industry	-10715
▁46	-10716
▁ampl	-10717
▁descendants	-10718
▁Chester	-10719
avor	-10720
▁1927	-10721
▁plastic	-10722
▁1921	-10723
▁clan	-10724
▁Lor	-10725
▁−	-10726
▁flex	-10727
▁Fish	-10728
ipper	-10729
▁animation	-10730
▁operators	-10731
▁Rolling	-10732
▁hydrogen	-10733
▁Pic	-10734
▁cogn	-10735
▁Jacques	-10736
▁Athletics	-10737
▁abroad	-10738
▁57	-10739
▁isolated	-10740
▁automatic	-10741
▁Eld	-10742
▁Contemporary	-10743
▁explain	-10744
▁patent	-10745
oded	-10746
▁Buch	-10747
La	-10748
▁Cant	-10749
shaped	-10750
▁Leonard	-10751
roid	-10752
▁beautiful	-10753
imm	-10754
▁Relations	-10755
▁everyone	-10756
pin	-10757
▁Celtic	-10758
br	-10759
▁overseas	-10760
iability	-10761
▁Bav	-10762
▁Finally	-10763
▁Transl	-10764
▁×	-10765
▁Guinea	-10766
20,	-10767
esters	-10768
▁Put	-10769
▁perspective	-10770
▁Defunct	-10771
▁coinc	-10772
olve	-10773
▁Isaac	-10774
▁ske	-10775
▁conclusion	-10776
err	-10777
▁promin	-10778
▁Face	-10779
▁accessible	-10780
▁sleep	-10781
▁Murphy	-10782
▁Hil	-10783
▁shield	-10784
▁Bris	-10785
▁seeing	-10786
▁surve	-10787
▁funeral	-10788
▁Kid	-10789
zes	-10790
▁NS	-10791
▁telephone	-10792
▁keyboard	-10793
▁Bear	-10794
▁Brun	-10795
▁Otto	-10796
▁1989.	-10797
▁habitat	-10798
▁recognised	-10799
▁Description	-10800
rien	-10801
▁consistent	-10802
▁stem	-10803
illes	-10804
▁Together	-10805
▁Weekly	-10806
written	-10807
▁convert	-10808
▁Financial	-10809
▁1971,	-10810
▁Was	-10811
inated	-10812
agles	-10813
orp	-10814
▁extensively	-10815
▁proteins	-10816
▁Et	-10817
iast	-10818
issions	-10819
▁artificial	-10820
▁Bog	-10821
▁Rhodes	-10822
sur	-10823
▁(2003)	-10824
▁aviation	-10825
▁1973,	-10826
inite	-10827
ophers	-10828
▁Kath	-10829
▁departments	-10830
▁magic	-10831
nik	-10832
got	-10833
▁dict	-10834
CP	-10835
▁167	-10836
▁Price	-10837
▁Tibet	-10838
▁Municipality	-10839
roe	-10840
ipher	-10841
▁Peru	-10842
▁Lux	-10843
▁interface	-10844
iology	-10845
▁Intro	-10846
▁Java	-10847
▁Reich	-10848
52	-10849
▁competing	-10850
▁quad	-10851
▁ride	-10852
▁disestablished	-10853
▁1967,	-10854
▁apartment	-10855
▁traded	-10856
andy	-10857
cat	-10858
▁Shin	-10859
▁improvements	-10860
▁Heights	-10861
rison	-10862
▁ranging	-10863
▁subdiv	-10864
▁narrative	-10865
▁1925	-10866
▁intellectual	-10867
▁rout	-10868
–10	-10869
uchy	-10870
▁Rou	-10871
rous	-10872
▁Buddhism	-10873
▁abolished	-10874
▁jet	-10875
▁bone	-10876
▁Adventures	-10877
▁Hann	-10878
▁Trek	-10879
▁festivals	-10880
▁farming	-10881
uy	-10882
▁Cabinet	-10883
▁Esc	-10884
▁exha	-10885
▁Adelaide	-10886
▁wel	-10887
onna	-10888
▁1977,	-10889
▁Denver	-10890
▁Leader	-10891
▁honorary	-10892
▁respective	-10893
▁virtual	-10894
▁VII	-10895
▁cloud	-10896
▁1923	-10897
▁fewer	-10898
lived	-10899
▁march	-10900
▁Lev	-10901
▁1926	-10902
▁spir	-10903
▁symbols	-10904
▁succession	-10905
▁Legend	-10906
itudes	-10907
▁enthus	-10908
▁(2006)	-10909
olen	-10910
▁guilty	-10911
▁Educational	-10912
▁bay	-10913
▁seemed	-10914
▁Raw	-10915
▁grandfather	-10916
▁Google	-10917
▁requested	-10918
▁Pep	-10919
cano	-10920
cott	-10921
ahl	-10922
▁deter	-10923
▁rounds	-10924
▁copper	-10925
▁aqu	-10926
▁eldest	-10927
rawn	-10928
oshi	-10929
ouns	-10930
anthrop	-10931
▁4-	-10932
▁51	-10933
▁1870	-10934
dimensional	-10935
▁secured	-10936
▁predecessor	-10937
▁architectural	-10938
EN	-10939
▁chron	-10940
uisine	-10941
▁Spect	-10942
▁flowers	-10943
▁activists	-10944
▁Thunder	-10945
ourag	-10946
▁incidents	-10947
000,	-10948
▁ranking	-10949
▁temporarily	-10950
ocity	-10951
umi	-10952
▁mi	-10953
naissance	-10954
▁Wells	-10955
▁remote	-10956
▁tot	-10957
▁organic	-10958
▁studios	-10959
▁opponents	-10960
▁Tommy	-10961
▁electricity	-10962
▁drink	-10963
▁emphasis	-10964
ogs	-10965
▁Eff	-10966
▁prox	-10967
ON	-10968
▁Golf	-10969
▁prototype	-10970
▁beliefs	-10971
▁Watson	-10972
▁Viol	-10973
▁Provin	-10974
▁hyd	-10975
game	-10976
▁reflected	-10977
▁prove	-10978
▁truck	-10979
▁calc	-10980
▁thinking	-10981
aha	-10982
ationally	-10983
▁expatriate	-10984
was	-10985
▁Vas	-10986
▁economics	-10987
▁Moroc	-10988
▁disband	-10989
▁Nevertheless	-10990
▁songwriter	-10991
▁Inv	-10992
▁Eventually	-10993
▁compounds	-10994
onomous	-10995
text	-10996
▁dollars	-10997
▁abilities	-10998
▁Jar	-10999
elfare	-11000
▁gardens	-11001
▁Reserv	-11002
▁Florence	-11003
▁cruc	-11004
DC	-11005
▁Caes	-11006
▁Vermont	-11007
▁Attorney	-11008
▁Rat	-11009
▁legs	-11010
alia	-11011
▁Grade	-11012
▁answer	-11013
▁electro	-11014
icing	-11015
rank	-11016
▁engineers	-11017
▁lie	-11018
wald	-11019
▁Bent	-11020
▁burned	-11021
▁difficulties	-11022
outheastern	-11023
forced	-11024
▁Beginning	-11025
▁consolid	-11026
▁Conservation	-11027
▁Stein	-11028
▁alien	-11029
▁Gam	-11030
▁prev	-11031
▁exclusive	-11032
cca	-11033
▁EC	-11034
▁simultaneously	-11035
▁manip	-11036
▁Compet	-11037
▁Prison	-11038
▁Sony	-11039
▁looked	-11040
▁disaster	-11041
▁Eston	-11042
▁milk	-11043
▁Holmes	-11044
▁Fourth	-11045
two	-11046
▁stored	-11047
holm	-11048
▁Fun	-11049
19)	-11050
▁targets	-11051
▁Critical	-11052
▁Archive	-11053
▁Eight	-11054
enic	-11055
▁rice	-11056
▁funded	-11057
▁Chapter	-11058
▁fill	-11059
▁rect	-11060
▁withdrew	-11061
▁noise	-11062
▁transit	-11063
osexual	-11064
▁Lett	-11065
lett	-11066
▁Tas	-11067
▁aboard	-11068
▁championships	-11069
▁0.1	-11070
ichi	-11071
okes	-11072
▁subt	-11073
▁verse	-11074
▁Catholics	-11075
phew	-11076
▁Sierra	-11077
▁phon	-11078
51	-11079
OL	-11080
▁accomp	-11081
▁picked	-11082
Euro	-11083
▁nest	-11084
▁sang	-11085
ethyl	-11086
▁Geoff	-11087
▁hills	-11088
▁ST	-11089
izard	-11090
▁Phillips	-11091
▁bankrupt	-11092
▁productions	-11093
hin	-11094
auer	-11095
▁Fantasy	-11096
▁photographs	-11097
▁suspension	-11098
▁Romans	-11099
▁Additional	-11100
▁1944,	-11101
▁Range	-11102
At	-11103
▁Julian	-11104
iche	-11105
▁legit	-11106
▁photography	-11107
▁mixture	-11108
▁Software	-11109
▁rac	-11110
▁probability	-11111
▁Grace	-11112
▁Munich	-11113
▁preparation	-11114
itars	-11115
▁Boulevard	-11116
▁societies	-11117
▁Pedro	-11118
▁physic	-11119
ieg	-11120
ön	-11121
▁Imm	-11122
▁Productions	-11123
▁Artists	-11124
▁filming	-11125
▁spr	-11126
▁nominations	-11127
ref	-11128
▁Wag	-11129
▁Oscar	-11130
▁ordinary	-11131
▁requiring	-11132
▁rifle	-11133
▁SA	-11134
▁polar	-11135
▁poison	-11136
▁(2002)	-11137
▁1912	-11138
irk	-11139
▁doors	-11140
▁Dynasty	-11141
":	-11142
through	-11143
▁allies	-11144
▁announc	-11145
bane	-11146
▁Hat	-11147
overed	-11148
▁consumer	-11149
▁counterpart	-11150
▁developments	-11151
lu	-11152
▁Alpha	-11153
▁enforcement	-11154
▁Gardens	-11155
▁Still	-11156
▁lakes	-11157
zed	-11158
▁Prest	-11159
rington	-11160
▁Legion	-11161
▁reverse	-11162
▁Republicans	-11163
new	-11164
▁dogs	-11165
south	-11166
▁codes	-11167
▁Islander	-11168
▁Guardian	-11169
▁wat	-11170
–190	-11171
OT	-11172
▁chapel	-11173
▁merely	-11174
▁Syria	-11175
▁subsc	-11176
▁attending	-11177
erals	-11178
▁worst	-11179
▁Continental	-11180
ijing	-11181
▁Scout	-11182
▁attorney	-11183
gment	-11184
▁Creat	-11185
▁Palmer	-11186
▁closure	-11187
ovich	-11188
▁variants	-11189
log	-11190
esty	-11191
▁approached	-11192
▁Theory	-11193
ivic	-11194
boat	-11195
▁deemed	-11196
rise	-11197
▁Fine	-11198
▁Montana	-11199
▁Ferdin	-11200
▁cosm	-11201
▁pursue	-11202
▁Eis	-11203
▁Bangladesh	-11204
▁Wu	-11205
▁lap	-11206
▁Others	-11207
▁abst	-11208
aukee	-11209
▁blues	-11210
▁walking	-11211
ampa	-11212
▁prest	-11213
eli	-11214
▁flour	-11215
▁smooth	-11216
▁Masters	-11217
▁functional	-11218
▁reaches	-11219
▁Soph	-11220
▁compound	-11221
▁Argentine	-11222
▁Schol	-11223
▁Study	-11224
▁(2007)	-11225
▁inherited	-11226
orient	-11227
bing	-11228
▁dramatic	-11229
pling	-11230
▁Crus	-11231
unar	-11232
▁retain	-11233
▁Venice	-11234
▁ties	-11235
▁Wang	-11236
▁museums	-11237
▁desert	-11238
▁Mario	-11239
▁rocket	-11240
▁highlight	-11241
▁Recent	-11242
▁1916	-11243
▁recovery	-11244
▁elabor	-11245
600	-11246
▁synthes	-11247
▁McM	-11248
▁liver	-11249
▁Sask	-11250
▁partners	-11251
irts	-11252
ointing	-11253
▁pref	-11254
▁restrictions	-11255
▁reorgan	-11256
rupted	-11257
▁Comedy	-11258
▁discontinued	-11259
▁dependent	-11260
▁thereby	-11261
lee	-11262
▁recipient	-11263
▁PS	-11264
lain	-11265
▁remark	-11266
▁PlayStation	-11267
▁thir	-11268
▁compact	-11269
▁shorter	-11270
▁Wel	-11271
▁doctrine	-11272
enda	-11273
acles	-11274
oland	-11275
igible	-11276
▁Princeton	-11277
▁affiliate	-11278
▁58	-11279
igious	-11280
▁approaches	-11281
▁Commerce	-11282
▁departed	-11283
▁muscle	-11284
▁erup	-11285
▁Less	-11286
▁PA	-11287
▁HD	-11288
▁Filip	-11289
▁pairs	-11290
▁flower	-11291
▁sustain	-11292
▁sailed	-11293
▁Pick	-11294
abad	-11295
aku	-11296
▁bin	-11297
▁(2001)	-11298
irms	-11299
▁manage	-11300
▁bombing	-11301
brev	-11302
sterdam	-11303
IM	-11304
teg	-11305
▁Edmund	-11306
▁1988.	-11307
▁Manuel	-11308
▁prol	-11309
▁playoffs	-11310
▁31.	-11311
inters	-11312
▁wedding	-11313
▁analy	-11314
▁1915	-11315
▁talent	-11316
▁supplement	-11317
▁statements	-11318
▁efficiency	-11319
▁interaction	-11320
▁demands	-11321
▁armies	-11322
▁cinema	-11323
▁birthday	-11324
▁fulf	-11325
VID	-11326
child	-11327
▁affair	-11328
▁rebellion	-11329
▁associate	-11330
▁accurate	-11331
▁Diamond	-11332
she	-11333
▁connects	-11334
▁scatter	-11335
▁receives	-11336
▁flew	-11337
▁Progressive	-11338
▁tested	-11339
▁acoustic	-11340
eras	-11341
▁surname	-11342
▁neighboring	-11343
▁mathematical	-11344
ashes	-11345
▁Newcastle	-11346
aude	-11347
▁locomotive	-11348
▁anthrop	-11349
▁Seb	-11350
▁protests	-11351
▁interviews	-11352
▁convinced	-11353
▁Joint	-11354
▁Visc	-11355
▁5:	-11356
rov	-11357
▁AF	-11358
▁Ches	-11359
ffield	-11360
▁Arist	-11361
▁1965,	-11362
▁endors	-11363
▁situations	-11364
▁rational	-11365
▁ion	-11366
▁Ruth	-11367
▁rocks	-11368
▁disch	-11369
▁Deb	-11370
unny	-11371
ilian	-11372
▁terminus	-11373
▁caps	-11374
▁Morning	-11375
▁Isab	-11376
rium	-11377
▁tissue	-11378
▁Saudi	-11379
rogen	-11380
irth	-11381
▁Nan	-11382
▁Villages	-11383
▁submitted	-11384
powered	-11385
▁Croatia	-11386
▁Circle	-11387
▁battery	-11388
▁pointed	-11389
▁Roche	-11390
▁Kab	-11391
▁Mol	-11392
▁Name	-11393
▁accum	-11394
▁Poll	-11395
▁collaps	-11396
▁toll	-11397
hall	-11398
▁sax	-11399
▁updated	-11400
anni	-11401
▁dissolved	-11402
▁conductor	-11403
hn	-11404
oyage	-11405
▁gent	-11406
▁friendly	-11407
umberland	-11408
▁Lex	-11409
cludes	-11410
▁tight	-11411
▁victim	-11412
word	-11413
▁McL	-11414
▁resid	-11415
▁Suz	-11416
▁brick	-11417
isa	-11418
▁pilots	-11419
oku	-11420
▁Mix	-11421
EA	-11422
▁Beaut	-11423
▁believes	-11424
Or	-11425
United	-11426
And	-11427
▁thor	-11428
▁soci	-11429
ormal	-11430
tar	-11431
▁Decl	-11432
edge	-11433
▁nam	-11434
uto	-11435
▁Reed	-11436
▁Lot	-11437
▁prince	-11438
▁pret	-11439
▁housed	-11440
▁holiday	-11441
▁morph	-11442
▁behaviour	-11443
NC	-11444
▁compat	-11445
▁supplied	-11446
pine	-11447
▁adjust	-11448
osl	-11449
▁Yu	-11450
▁Mul	-11451
92	-11452
▁assisted	-11453
athered	-11454
▁deliber	-11455
ów	-11456
▁printing	-11457
▁ibn	-11458
20)	-11459
▁Faculty	-11460
▁familiar	-11461
▁),	-11462
▁scope	-11463
▁Trophy	-11464
▁portions	-11465
enders	-11466
▁ratings	-11467
▁Essex	-11468
boro	-11469
eda	-11470
▁Nathan	-11471
▁Kay	-11472
▁Honours	-11473
▁Protection	-11474
▁2-	-11475
▁GT	-11476
atar	-11477
▁escaped	-11478
▁Soccer	-11479
▁Pi	-11480
▁abund	-11481
▁fasc	-11482
▁Tamil	-11483
▁saved	-11484
▁stops	-11485
▁(2000)	-11486
▁technologies	-11487
▁missed	-11488
--	-11489
▁warri	-11490
▁Stories	-11491
▁photo	-11492
▁Bund	-11493
▁1964,	-11494
▁helps	-11495
made	-11496
kees	-11497
▁mini	-11498
▁extract	-11499
▁Gabriel	-11500
▁pand	-11501
▁commentary	-11502
▁Sad	-11503
compass	-11504
uber	-11505
▁indicating	-11506
▁duo	-11507
▁Franz	-11508
▁organised	-11509
var	-11510
▁proportion	-11511
▁Appro	-11512
named	-11513
▁Og	-11514
namese	-11515
▁affiliated	-11516
▁Representative	-11517
ospitals	-11518
rets	-11519
▁releg	-11520
▁hidden	-11521
▁painters	-11522
aders	-11523
▁finance	-11524
▁casualties	-11525
axy	-11526
▁Sha	-11527
▁Leeds	-11528
ivia	-11529
▁Flying	-11530
▁runner	-11531
▁Athletic	-11532
vet	-11533
igation	-11534
▁Annual	-11535
aja	-11536
fly	-11537
▁separation	-11538
▁Folk	-11539
▁Methodist	-11540
▁belonged	-11541
▁Armstrong	-11542
lit	-11543
▁250	-11544
▁Columbus	-11545
▁Moz	-11546
▁sung	-11547
▁diplomatic	-11548
▁tum	-11549
▁orche	-11550
▁chemistry	-11551
▁labels	-11552
▁pushed	-11553
▁sharp	-11554
▁Room	-11555
▁revol	-11556
bin	-11557
▁finals	-11558
▁medalists	-11559
▁Maurice	-11560
▁Rav	-11561
endum	-11562
▁Qual	-11563
▁Bulgaria	-11564
uper	-11565
▁Shadow	-11566
Ex	-11567
icting	-11568
▁ports	-11569
▁firing	-11570
▁IP	-11571
▁delayed	-11572
▁Bened	-11573
▁XX	-11574
▁Armed	-11575
▁relevant	-11576
EL	-11577
legraph	-11578
▁Archives	-11579
▁Sah	-11580
▁ninth	-11581
▁mit	-11582
avian	-11583
▁outbreak	-11584
EM	-11585
▁nurs	-11586
▁canon	-11587
▁structural	-11588
▁package	-11589
Aust	-11590
▁Franco	-11591
sub	-11592
▁alive	-11593
istent	-11594
▁Drama	-11595
achi	-11596
oting	-11597
▁Twin	-11598
▁Bennett	-11599
▁hem	-11600
▁Delhi	-11601
ublished	-11602
aneous	-11603
▁handle	-11604
▁surpr	-11605
▁chlor	-11606
iens	-11607
▁MTV	-11608
▁pap	-11609
ulsion	-11610
▁queen	-11611
▁Aven	-11612
▁informed	-11613
▁followers	-11614
waukee	-11615
▁Must	-11616
byter	-11617
▁memb	-11618
repre	-11619
▁Stanford	-11620
▁Armenian	-11621
▁comfort	-11622
elected	-11623
▁Desert	-11624
▁hier	-11625
▁marry	-11626
▁Duc	-11627
▁similarly	-11628
marks	-11629
▁brands	-11630
▁Scar	-11631
▁Apollo	-11632
▁sin	-11633
▁solutions	-11634
▁promoting	-11635
▁overl	-11636
▁Greatest	-11637
▁54	-11638
▁Universe	-11639
▁Heaven	-11640
▁Brooks	-11641
▁Bach	-11642
▁Using	-11643
inted	-11644
▁(1999)	-11645
reprene	-11646
▁ticket	-11647
▁venture	-11648
▁maintaining	-11649
▁Writing	-11650
istration	-11651
ław	-11652
▁horizont	-11653
▁progressive	-11654
arms	-11655
▁bath	-11656
ifier	-11657
align	-11658
▁humid	-11659
▁reporting	-11660
enson	-11661
▁cutting	-11662
▁clinical	-11663
▁kne	-11664
▁Crow	-11665
▁Abu	-11666
▁São	-11667
▁varies	-11668
▁overt	-11669
▁define	-11670
El	-11671
▁Valent	-11672
▁1987.	-11673
▁psychology	-11674
▁highways	-11675
▁Din	-11676
▁800	-11677
▁bull	-11678
▁objective	-11679
▁currency	-11680
▁Petersburg	-11681
▁attendance	-11682
mother	-11683
▁(16	-11684
▁Bulg	-11685
▁Kill	-11686
▁Cole	-11687
▁Harper	-11688
▁1913	-11689
oi	-11690
▁Screen	-11691
▁lifetime	-11692
▁resignation	-11693
▁shr	-11694
alling	-11695
▁comedian	-11696
▁decrease	-11697
▁Pete	-11698
▁spend	-11699
▁Sullivan	-11700
piece	-11701
fa	-11702
omed	-11703
▁Tourn	-11704
▁arbit	-11705
▁posted	-11706
▁Wald	-11707
▁moderate	-11708
▁Similarly	-11709
rift	-11710
▁toler	-11711
▁Various	-11712
spec	-11713
mits	-11714
asha	-11715
acked	-11716
▁belt	-11717
▁1860	-11718
▁COVID	-11719
▁corruption	-11720
first	-11721
▁wheels	-11722
▁Architecture	-11723
96	-11724
▁Fat	-11725
▁gallery	-11726
▁lights	-11727
▁specialized	-11728
▁1966,	-11729
▁Syl	-11730
▁displays	-11731
▁Interview	-11732
▁Amsterdam	-11733
▁1911	-11734
▁Travel	-11735
▁Somerset	-11736
▁travelled	-11737
▁Lanka	-11738
▁topics	-11739
rez	-11740
▁Beatles	-11741
▁Hurricane	-11742
▁Guild	-11743
▁imprisoned	-11744
pel	-11745
▁elevated	-11746
▁bibl	-11747
▁organisations	-11748
▁IC	-11749
▁cup	-11750
▁patri	-11751
▁Monday	-11752
▁Alger	-11753
ternoon	-11754
▁Recon	-11755
▁certified	-11756
gra	-11757
▁merc	-11758
▁database	-11759
agers	-11760
▁prevented	-11761
▁1942,	-11762
▁blind	-11763
▁broadcasts	-11764
▁torn	-11765
▁easier	-11766
backs	-11767
Oct	-11768
▁switched	-11769
▁reporter	-11770
▁democracy	-11771
▁Brid	-11772
▁Strateg	-11773
▁1986.	-11774
▁administered	-11775
▁Tree	-11776
▁sciences	-11777
▁Left	-11778
▁Ri	-11779
eness	-11780
▁Lutheran	-11781
▁Midd	-11782
▁Cycl	-11783
▁migr	-11784
▁phenomenon	-11785
anim	-11786
▁depends	-11787
▁infection	-11788
▁gods	-11789
▁ward	-11790
▁Clarke	-11791
▁(2008)	-11792
▁Secondary	-11793
bird	-11794
▁Faith	-11795
vor	-11796
▁noble	-11797
▁baby	-11798
▁Cov	-11799
▁reveals	-11800
▁Shar	-11801
held	-11802
▁willing	-11803
▁celebration	-11804
▁Beijing	-11805
▁samples	-11806
▁Colombia	-11807
▁tract	-11808
▁centres	-11809
▁Maz	-11810
▁Ferdinand	-11811
▁squadron	-11812
▁Iss	-11813
▁reactions	-11814
▁nephew	-11815
▁Todd	-11816
▁Birds	-11817
▁Religious	-11818
omical	-11819
▁Mig	-11820
ographers	-11821
onne	-11822
▁exhibit	-11823
cal	-11824
▁Agriculture	-11825
▁Kos	-11826
▁Tab	-11827
▁privile	-11828
eff	-11829
▁gap	-11830
▁Yang	-11831
▁Based	-11832
▁flash	-11833
▁MA	-11834
olith	-11835
▁Scotia	-11836
▁rulers	-11837
▁Hamb	-11838
onal	-11839
sole	-11840
▁Croatian	-11841
adows	-11842
▁exit	-11843
notes	-11844
▁exile	-11845
built	-11846
▁ski	-11847
▁slavery	-11848
▁defended	-11849
▁Motors	-11850
▁Sean	-11851
▁sulf	-11852
vision	-11853
▁pioneer	-11854
▁cir	-11855
Europe	-11856
▁chronic	-11857
ATO	-11858
▁Oakland	-11859
▁attacking	-11860
isch	-11861
▁corps	-11862
▁permit	-11863
alin	-11864
▁Beth	-11865
▁Mechan	-11866
▁revolutionary	-11867
▁explains	-11868
▁mild	-11869
post	-11870
▁feeling	-11871
adian	-11872
fan	-11873
▁Shop	-11874
▁register	-11875
▁Superman	-11876
▁Fly	-11877
▁Self	-11878
▁phosph	-11879
▁Events	-11880
▁precip	-11881
▁curve	-11882
ouch	-11883
▁tag	-11884
▁Individ	-11885
▁Reyn	-11886
▁Junction	-11887
▁sav	-11888
▁Kin	-11889
haus	-11890
▁petition	-11891
▁rede	-11892
▁redes	-11893
▁export	-11894
imensions	-11895
▁rotation	-11896
▁Bachelor	-11897
▁Lebanon	-11898
▁specified	-11899
izz	-11900
▁Astron	-11901
piracy	-11902
▁viewers	-11903
▁destination	-11904
▁scores	-11905
▁barrel	-11906
▁citizen	-11907
▁independently	-11908
iffs	-11909
▁femin	-11910
▁varieties	-11911
hal	-11912
ocent	-11913
▁Dol	-11914
otion	-11915
▁Tong	-11916
▁Sex	-11917
▁enters	-11918
▁Virt	-11919
rod	-11920
▁Constantin	-11921
▁resumed	-11922
▁arriving	-11923
▁56	-11924
▁tomb	-11925
▁Spencer	-11926
▁carries	-11927
ielder	-11928
▁verb	-11929
Japan	-11930
▁Warsaw	-11931
ults	-11932
▁conflicts	-11933
▁Hi	-11934
▁ft	-11935
▁1941,	-11936
▁framework	-11937
–191	-11938
▁Luke	-11939
▁Cox	-11940
ricks	-11941
▁finite	-11942
▁1985.	-11943
writing	-11944
▁Tales	-11945
▁forth	-11946
▁Mercury	-11947
▁orn	-11948
artet	-11949
▁Vietnamese	-11950
▁(1998)	-11951
▁Underg	-11952
▁Wellington	-11953
▁confused	-11954
▁bord	-11955
▁variables	-11956
▁Indies	-11957
▁Quarter	-11958
▁Metal	-11959
▁drinking	-11960
▁Math	-11961
▁Path	-11962
▁Peng	-11963
legiate	-11964
rimination	-11965
official	-11966
▁Cameron	-11967
▁Sheffield	-11968
acco	-11969
vanced	-11970
VP	-11971
▁guests	-11972
omo	-11973
▁repeatedly	-11974
▁pharm	-11975
▁favorite	-11976
▁readers	-11977
▁BM	-11978
apters	-11979
▁Population	-11980
▁unincorporated	-11981
oding	-11982
▁golden	-11983
▁Mobile	-11984
▁placing	-11985
rano	-11986
▁Nat	-11987
▁latest	-11988
▁Gothic	-11989
▁populated	-11990
If	-11991
earing	-11992
▁craft	-11993
▁Danny	-11994
▁carriers	-11995
ampton	-11996
▁Hus	-11997
yler	-11998
▁Manager	-11999
▁illustrated	-12000
▁Flag	-12001
▁Haz	-12002
▁voltage	-12003
▁absolute	-12004
▁documented	-12005
isers	-12006
▁margin	-12007
▁ble	-12008
▁closest	-12009
▁68	-12010
Men	-12011
eling	-12012
▁Finance	-12013
▁indeed	-12014
ennium	-12015
iden	-12016
▁Costa	-12017
▁diesel	-12018
▁Scientific	-12019
▁Baby	-12020
▁crosses	-12021
▁Lac	-12022
ishi	-12023
▁rib	-12024
aping	-12025
94	-12026
fast	-12027
▁Heat	-12028
▁hypothesis	-12029
▁accommodate	-12030
dal	-12031
▁Swan	-12032
▁tours	-12033
eper	-12034
▁empty	-12035
rieved	-12036
▁Antar	-12037
▁arrangements	-12038
],	-12039
▁conson	-12040
▁aster	-12041
John	-12042
▁Cuban	-12043
▁encourag	-12044
▁requirement	-12045
▁monastery	-12046
▁Lucas	-12047
▁columns	-12048
isting	-12049
▁Burials	-12050
93	-12051
▁comments	-12052
cycle	-12053
▁initiative	-12054
▁Daw	-12055
▁sword	-12056
▁friendship	-12057
▁emotional	-12058
▁Diet	-12059
▁Higher	-12060
owing	-12061
▁cuisine	-12062
▁interpreted	-12063
ansk	-12064
▁Personnel	-12065
▁prey	-12066
▁adventure	-12067
ocking	-12068
▁grave	-12069
▁travels	-12070
icken	-12071
▁Gonz	-12072
▁Rush	-12073
▁Sak	-12074
▁hole	-12075
▁Voice	-12076
entieth	-12077
▁Cha	-12078
▁Jess	-12079
▁surrender	-12080
Ed	-12081
▁(1997)	-12082
1/	-12083
▁Prad	-12084
▁Wildlife	-12085
▁Isle	-12086
▁boss	-12087
▁Bod	-12088
▁violin	-12089
▁sharing	-12090
empl	-12091
▁configuration	-12092
▁1850	-12093
borg	-12094
▁Economics	-12095
English	-12096
mount	-12097
mid	-12098
▁arena	-12099
roscop	-12100
▁manual	-12101
▁mixing	-12102
▁Palestine	-12103
▁forb	-12104
▁Herm	-12105
▁fifteen	-12106
govern	-12107
erness	-12108
▁citing	-12109
▁Carr	-12110
common	-12111
▁predominantly	-12112
▁Present	-12113
▁warning	-12114
▁Double	-12115
▁Parad	-12116
keeper	-12117
▁encompass	-12118
wart	-12119
rapped	-12120
▁comprehensive	-12121
isan	-12122
▁Durham	-12123
▁Kenneth	-12124
▁mos	-12125
▁Liv	-12126
300	-12127
▁Reading	-12128
▁Own	-12129
oqu	-12130
estershire	-12131
bul	-12132
enny	-12133
about	-12134
▁Outstanding	-12135
▁intervention	-12136
What	-12137
▁Shir	-12138
▁client	-12139
▁crops	-12140
▁distinguish	-12141
arin	-12142
▁extends	-12143
▁fighters	-12144
▁Sold	-12145
his	-12146
▁SC	-12147
HF	-12148
amer	-12149
▁Safety	-12150
▁raising	-12151
▁Gent	-12152
▁bars	-12153
▁acres	-12154
zig	-12155
▁1960,	-12156
▁Meg	-12157
week	-12158
▁1908	-12159
ulations	-12160
▁Ord	-12161
▁clergy	-12162
▁Param	-12163
▁archaeological	-12164
▁handling	-12165
film	-12166
uly	-12167
▁Charter	-12168
▁leaf	-12169
cession	-12170
▁visits	-12171
▁Yugoslavia	-12172
playing	-12173
▁intense	-12174
▁contracts	-12175
▁AL	-12176
finals	-12177
▁tru	-12178
▁fame	-12179
▁CB	-12180
ucker	-12181
▁Craw	-12182
▁beauty	-12183
▁Ster	-12184
▁Iraqi	-12185
▁memor	-12186
▁entity	-12187
▁maintains	-12188
▁unex	-12189
▁integral	-12190
▁VIII	-12191
wheel	-12192
▁enact	-12193
▁orient	-12194
▁speaker	-12195
DR	-12196
▁mentions	-12197
▁fee	-12198
▁accompany	-12199
▁Rif	-12200
▁Planet	-12201
quest	-12202
One	-12203
▁Venezuela	-12204
▁breed	-12205
▁bonus	-12206
▁crater	-12207
▁Nad	-12208
▁Evangel	-12209
aba	-12210
▁procedures	-12211
cock	-12212
▁Milwaukee	-12213
▁fraud	-12214
▁Bengal	-12215
▁Foster	-12216
▁cow	-12217
▁demanded	-12218
▁prosper	-12219
▁Roth	-12220
orne	-12221
▁forcing	-12222
▁1905	-12223
▁optim	-12224
▁Pav	-12225
gi	-12226
▁1984.	-12227
▁sequences	-12228
▁Nancy	-12229
▁Nashville	-12230
▁Cert	-12231
▁1940,	-12232
▁XV	-12233
▁stake	-12234
–192	-12235
▁Brah	-12236
▁Pink	-12237
▁preserve	-12238
▁novelists	-12239
▁internet	-12240
▁immigration	-12241
▁oral	-12242
▁Brisbane	-12243
▁concentrated	-12244
▁disturb	-12245
▁disapp	-12246
▁guitars	-12247
▁psychological	-12248
▁programmes	-12249
▁namely	-12250
owder	-12251
▁abandon	-12252
▁Elections	-12253
opol	-12254
unication	-12255
▁goddess	-12256
nty	-12257
▁addressed	-12258
▁excellent	-12259
▁ow	-12260
brook	-12261
▁parking	-12262
omi	-12263
▁pronounced	-12264
▁syll	-12265
▁answ	-12266
reated	-12267
▁divorce	-12268
▁Commercial	-12269
▁summit	-12270
▁Complete	-12271
atorial	-12272
aturally	-12273
rague	-12274
▁Cauc	-12275
▁governed	-12276
▁sisters	-12277
eu	-12278
▁1906	-12279
▁brew	-12280
▁stick	-12281
▁Vent	-12282
June	-12283
▁anchor	-12284
▁wore	-12285
aca	-12286
▁Exp	-12287
histor	-12288
▁Poetry	-12289
▁fairly	-12290
0).	-12291
▁Esp	-12292
kov	-12293
▁scandal	-12294
▁earthquake	-12295
▁necessarily	-12296
▁Apost	-12297
▁Rut	-12298
onnell	-12299
holders	-12300
▁styl	-12301
Nov	-12302
▁Homer	-12303
▁(2009)	-12304
ér	-12305
▁varying	-12306
▁kidn	-12307
▁Jur	-12308
▁Vern	-12309
▁Chair	-12310
▁lib	-12311
SC	-12312
▁53	-12313
Pr	-12314
▁Thames	-12315
▁severely	-12316
munition	-12317
▁164	-12318
▁observation	-12319
▁aw	-12320
▁Cardinal	-12321
omes	-12322
uba	-12323
▁fault	-12324
▁confess	-12325
ocene	-12326
▁theor	-12327
▁Devil	-12328
▁Juda	-12329
Jan	-12330
▁footage	-12331
uum	-12332
▁Workers	-12333
▁vulner	-12334
▁gift	-12335
▁ca	-12336
▁shipping	-12337
ilia	-12338
▁Globe	-12339
▁freight	-12340
ricketer	-12341
four	-12342
▁Proper	-12343
▁Angels	-12344
▁1963,	-12345
▁Cut	-12346
imo	-12347
ambers	-12348
▁disk	-12349
sl	-12350
▁Tigers	-12351
▁varied	-12352
▁Laboratory	-12353
▁promised	-12354
▁pulled	-12355
▁optical	-12356
▁territorial	-12357
nal	-12358
selling	-12359
▁cricketers	-12360
▁afford	-12361
▁tack	-12362
▁André	-12363
▁wish	-12364
▁lawsuit	-12365
bot	-12366
▁involve	-12367
▁Capitol	-12368
▁portrait	-12369
▁"[	-12370
▁Sweet	-12371
▁rated	-12372
▁stability	-12373
▁payment	-12374
400	-12375
▁Villa	-12376
▁sending	-12377
▁grades	-12378
▁alphabet	-12379
▁1800	-12380
▁potentially	-12381
▁Emmy	-12382
▁Citiz	-12383
▁communist	-12384
▁unemploy	-12385
ás	-12386
▁cooperation	-12387
quiry	-12388
▁doesn	-12389
▁orth	-12390
iliary	-12391
▁pianist	-12392
▁punishment	-12393
▁Spart	-12394
▁naming	-12395
▁('	-12396
▁wants	-12397
▁relating	-12398
▁sure	-12399
▁cotton	-12400
▁Bag	-12401
quarter	-12402
▁Barcel	-12403
lights	-12404
▁Basil	-12405
NT	-12406
▁Presbyter	-12407
▁glac	-12408
Qu	-12409
▁1980.	-12410
enos	-12411
ificate	-12412
IR	-12413
▁intercept	-12414
nut	-12415
▁grey	-12416
▁weaken	-12417
aran	-12418
▁Parliamentary	-12419
▁1962,	-12420
▁observations	-12421
▁66	-12422
isons	-12423
ustrated	-12424
▁coc	-12425
▁pole	-12426
▁lock	-12427
adier	-12428
▁Cruz	-12429
▁drove	-12430
▁Filmography	-12431
▁soap	-12432
▁chest	-12433
▁asks	-12434
▁Ports	-12435
▁Cec	-12436
▁Gand	-12437
▁attraction	-12438
ourg	-12439
▁velocity	-12440
▁Testament	-12441
path	-12442
▁IT	-12443
▁Yankees	-12444
▁Shanghai	-12445
▁ha	-12446
▁Jen	-12447
▁challenged	-12448
▁Single	-12449
▁ancestry	-12450
▁haz	-12451
▁infer	-12452
▁Raid	-12453
Don	-12454
▁Fighter	-12455
▁conquest	-12456
▁1983.	-12457
▁Malay	-12458
▁sculpture	-12459
month	-12460
▁Tourism	-12461
▁77	-12462
▁permanently	-12463
▁signature	-12464
▁circulation	-12465
yll	-12466
▁Legal	-12467
▁32.	-12468
▁vocalist	-12469
▁valuable	-12470
▁dialogue	-12471
▁earning	-12472
▁Highland	-12473
▁belonging	-12474
▁Honorary	-12475
▁beam	-12476
▁Female	-12477
▁enabled	-12478
▁Fras	-12479
▁Opt	-12480
▁pandemic	-12481
▁Owen	-12482
BO	-12483
▁1943,	-12484
▁inhabited	-12485
▁CA	-12486
▁outstanding	-12487
▁Chan	-12488
▁undergraduate	-12489
▁bicy	-12490
▁grid	-12491
▁Anat	-12492
▁democratic	-12493
▁referendum	-12494
▁skill	-12495
▁bell	-12496
▁Presidential	-12497
final	-12498
▁Nuclear	-12499
▁Arabia	-12500
▁altitude	-12501
iu	-12502
▁decide	-12503
ffer	-12504
utors	-12505
▁1939,	-12506
base	-12507
iors	-12508
▁157	-12509
▁Train	-12510
iscopal	-12511
▁extending	-12512
▁encountered	-12513
thal	-12514
▁(1996)	-12515
▁mineral	-12516
▁realized	-12517
▁scholarship	-12518
▁culmin	-12519
▁110	-12520
lined	-12521
IL	-12522
▁Sz	-12523
nan	-12524
▁Selected	-12525
▁focuses	-12526
▁Powell	-12527
▁internationally	-12528
▁gathered	-12529
▁Assistant	-12530
HC	-12531
91	-12532
▁underwent	-12533
▁instructions	-12534
▁sitting	-12535
▁completing	-12536
▁Ful	-12537
▁Kum	-12538
▁plates	-12539
▁premiere	-12540
▁Bulgarian	-12541
tingham	-12542
▁alumin	-12543
▁NATO	-12544
▁tea	-12545
▁tasks	-12546
eded	-12547
▁traveling	-12548
▁1982.	-12549
▁Gerald	-12550
▁Link	-12551
▁Heath	-12552
▁minimal	-12553
▁generations	-12554
▁Enterprise	-12555
▁Sussex	-12556
▁fabric	-12557
▁Lisa	-12558
▁relie	-12559
▁secular	-12560
▁Ja	-12561
elia	-12562
opened	-12563
▁generate	-12564
▁Czechosl	-12565
▁bypass	-12566
▁Chancellor	-12567
March	-12568
▁130	-12569
▁asking	-12570
▁divorced	-12571
▁altered	-12572
▁Bloom	-12573
▁Picture	-12574
▁array	-12575
arians	-12576
okie	-12577
▁Rice	-12578
▁(1.	-12579
▁beer	-12580
uras	-12581
▁lung	-12582
jab	-12583
▁Newport	-12584
▁basin	-12585
rooms	-12586
▁(1995)	-12587
▁desired	-12588
chron	-12589
▁Statistical	-12590
▁neighbouring	-12591
fr	-12592
▁continental	-12593
▁Tiger	-12594
▁Tall	-12595
▁integration	-12596
▁Giov	-12597
ailing	-12598
▁Darwin	-12599
▁67	-12600
uer	-12601
▁Aaron	-12602
▁installation	-12603
▁158	-12604
▁Cornwall	-12605
icular	-12606
▁rever	-12607
▁priests	-12608
▁hub	-12609
▁abbrev	-12610
▁wrestler	-12611
▁HMS	-12612
kar	-12613
▁chess	-12614
▁loyal	-12615
▁Achie	-12616
oriented	-12617
▁theatrical	-12618
▁plural	-12619
▁Gibson	-12620
▁jury	-12621
▁1901	-12622
▁rainfall	-12623
▁cad	-12624
▁laboratory	-12625
▁(1,	-12626
ducer	-12627
atsu	-12628
▁comprises	-12629
▁Exped	-12630
▁comprom	-12631
▁Haven	-12632
forming	-12633
▁Watch	-12634
▁layout	-12635
▁spectrum	-12636
▁ho	-12637
icus	-12638
▁particle	-12639
▁Cust	-12640
▁Tasman	-12641
atha	-12642
▁Against	-12643
▁argue	-12644
▁Vladimir	-12645
▁beating	-12646
▁Plate	-12647
pit	-12648
▁Hous	-12649
▁72	-12650
▁lighting	-12651
▁Mü	-12652
▁Ein	-12653
ég	-12654
▁magnitude	-12655
▁Gren	-12656
▁transformed	-12657
▁contribute	-12658
▁Colin	-12659
▁Cyr	-12660
agger	-12661
▁Leop	-12662
bie	-12663
▁monthly	-12664
▁molecular	-12665
otto	-12666
ints	-12667
arma	-12668
▁diversity	-12669
▁Bark	-12670
▁improvement	-12671
aque	-12672
aeus	-12673
▁Kun	-12674
izers	-12675
ateral	-12676
▁Without	-12677
▁unions	-12678
▁theolog	-12679
▁Prussia	-12680
▁dialects	-12681
▁consequence	-12682
▁True	-12683
▁grandson	-12684
▁Thai	-12685
▁engage	-12686
▁telling	-12687
pring	-12688
arat	-12689
▁Ny	-12690
▁virtually	-12691
▁Bak	-12692
angular	-12693
▁segments	-12694
▁molecules	-12695
icia	-12696
▁talks	-12697
▁tip	-12698
▁outdoor	-12699
▁Literary	-12700
itus	-12701
▁resource	-12702
▁faces	-12703
▁Milton	-12704
▁geometry	-12705
▁pir	-12706
anyon	-12707
atchewan	-12708
▁messages	-12709
inee	-12710
▁sustained	-12711
▁Hero	-12712
▁remembered	-12713
▁theology	-12714
▁fortress	-12715
▁explanation	-12716
stop	-12717
▁Davies	-12718
▁liv	-12719
irus	-12720
▁Wed	-12721
afe	-12722
▁waiting	-12723
▁notion	-12724
▁nerv	-12725
▁Pract	-12726
▁Fifth	-12727
▁arrive	-12728
▁coffee	-12729
▁Ath	-12730
19,	-12731
▁bare	-12732
▁metab	-12733
▁personally	-12734
▁Harm	-12735
▁sick	-12736
▁teeth	-12737
▁qualifying	-12738
▁sky	-12739
▁triple	-12740
randed	-12741
▁(2010)	-12742
▁Johannes	-12743
wind	-12744
▁Fig	-12745
▁Sle	-12746
▁Rhode	-12747
▁Advanced	-12748
▁gran	-12749
▁Woods	-12750
▁Nak	-12751
▁leagues	-12752
2/	-12753
▁SE	-12754
▁Sevent	-12755
aws	-12756
modern	-12757
.:	-12758
▁Palm	-12759
▁challenges	-12760
▁migration	-12761
▁Shore	-12762
anne	-12763
azi	-12764
▁Dominican	-12765
▁putting	-12766
▁confront	-12767
▁Marcus	-12768
▁Glou	-12769
-17	-12770
▁bread	-12771
▁shifted	-12772
si	-12773
odia	-12774
▁stronger	-12775
onso	-12776
agram	-12777
▁seriously	-12778
▁1979.	-12779
▁Barcelona	-12780
▁oct	-12781
▁Strat	-12782
▁Statistics	-12783
▁Total	-12784
▁execut	-12785
▁Americas	-12786
▁parad	-12787
▁regulation	-12788
▁1/	-12789
▁Glass	-12790
itting	-12791
iffe	-12792
umbent	-12793
▁collective	-12794
▁Pos	-12795
▁Trin	-12796
▁allegedly	-12797
▁medals	-12798
▁Letters	-12799
▁hoped	-12800
▁Kas	-12801
▁audiences	-12802
▁(180	-12803
agi	-12804
gon	-12805
▁pod	-12806
▁burial	-12807
▁je	-12808
▁Physics	-12809
▁Dum	-12810
▁ask	-12811
▁axis	-12812
▁lawyers	-12813
▁hurricane	-12814
▁transformation	-12815
▁spacecraft	-12816
▁Canter	-12817
▁creates	-12818
▁surfaces	-12819
▁revived	-12820
▁Kash	-12821
▁Guitar	-12822
▁88	-12823
furt	-12824
▁graduating	-12825
▁athletes	-12826
▁Lions	-12827
▁1907	-12828
▁Gael	-12829
ieu	-12830
▁Medieval	-12831
▁clot	-12832
▁cuts	-12833
▁prepare	-12834
▁Krist	-12835
▁missiles	-12836
▁Product	-12837
count	-12838
▁Sent	-12839
▁Novels	-12840
▁equations	-12841
▁Derby	-12842
▁managing	-12843
▁Manufact	-12844
▁Worth	-12845
oil	-12846
inery	-12847
▁Cort	-12848
▁Panama	-12849
▁Electronic	-12850
▁cemetery	-12851
▁commenced	-12852
▁survival	-12853
▁literally	-12854
▁Deuts	-12855
▁1961,	-12856
▁cathedral	-12857
▁raid	-12858
▁extinct	-12859
▁bishops	-12860
▁anten	-12861
▁Bosnia	-12862
▁examination	-12863
abe	-12864
▁applic	-12865
▁apprec	-12866
ben	-12867
▁Churchill	-12868
▁Talk	-12869
▁Beyond	-12870
ellers	-12871
HA	-12872
uncredited	-12873
▁acknowledged	-12874
▁Obama	-12875
unning	-12876
▁quiet	-12877
▁sweet	-12878
▁assassination	-12879
▁sitcom	-12880
both	-12881
▁174	-12882
▁Maxim	-12883
▁78	-12884
▁compositions	-12885
▁Kurt	-12886
▁recruited	-12887
▁ritual	-12888
length	-12889
▁guitarists	-12890
▁Springfield	-12891
▁sacrif	-12892
▁Allan	-12893
▁fallen	-12894
▁Sudan	-12895
▁failing	-12896
▁restore	-12897
▁recognize	-12898
▁peer	-12899
▁kg	-12900
▁dubbed	-12901
onnie	-12902
heric	-12903
▁Election	-12904
sized	-12905
▁oxid	-12906
▁2,000	-12907
▁obsc	-12908
▁Claud	-12909
▁properly	-12910
▁Adventure	-12911
▁Kate	-12912
hart	-12913
mented	-12914
▁push	-12915
▁exchang	-12916
▁disorders	-12917
▁Agre	-12918
▁Trent	-12919
▁Saskatchewan	-12920
▁Linux	-12921
▁Musicians	-12922
▁awareness	-12923
▁Mik	-12924
▁dimensions	-12925
▁Mull	-12926
▁Idaho	-12927
▁drain	-12928
▁presents	-12929
▁collaborated	-12930
▁Clif	-12931
▁cancel	-12932
▁danger	-12933
▁honors	-12934
▁artwork	-12935
▁Viscount	-12936
▁Made	-12937
▁Core	-12938
▁Wool	-12939
▁authent	-12940
▁pill	-12941
▁Amendment	-12942
▁performers	-12943
▁Windsor	-12944
▁Jin	-12945
▁strings	-12946
▁Eve	-12947
▁intermediate	-12948
▁inaugural	-12949
▁suburbs	-12950
▁jump	-12951
sted	-12952
▁Shep	-12953
odyn	-12954
phis	-12955
▁Ministers	-12956
▁occasional	-12957
')	-12958
▁presidency	-12959
▁photos	-12960
▁governing	-12961
▁Starting	-12962
▁mathematician	-12963
▁CC	-12964
▁Ply	-12965
▁Triple	-12966
▁decreased	-12967
▁authorized	-12968
▁Banks	-12969
▁Julius	-12970
▁Hir	-12971
▁parishes	-12972
▁thanks	-12973
▁receiver	-12974
▁Neigh	-12975
▁Ug	-12976
assy	-12977
anche	-12978
▁WC	-12979
▁borrow	-12980
▁aggreg	-12981
second	-12982
▁3.0	-12983
pector	-12984
▁166	-12985
▁Rams	-12986
▁lux	-12987
imer	-12988
▁stroke	-12989
▁battalion	-12990
▁onwards	-12991
foundland	-12992
atta	-12993
airo	-12994
stage	-12995
▁overw	-12996
▁verte	-12997
▁bulk	-12998
▁Complex	-12999
▁considering	-13000
▁conjunction	-13001
▁trump	-13002
▁soph	-13003
▁Advis	-13004
▁seeds	-13005
▁posthum	-13006
oque	-13007
▁tom	-13008
▁doubt	-13009
▁thermal	-13010
▁considerably	-13011
arded	-13012
▁steep	-13013
▁provisions	-13014
"|	-13015
August	-13016
▁bears	-13017
▁anticip	-13018
▁decorated	-13019
etics	-13020
uli	-13021
iev	-13022
▁Use	-13023
▁elite	-13024
▁1972.	-13025
▁Citations	-13026
▁confusion	-13027
▁Rib	-13028
▁Tournament	-13029
usc	-13030
▁Cypr	-13031
▁cave	-13032
▁ash	-13033
uros	-13034
▁Judaism	-13035
ema	-13036
▁seal	-13037
▁eventual	-13038
▁lift	-13039
▁Jamaica	-13040
▁1909	-13041
▁Duncan	-13042
▁Indianapolis	-13043
▁suggesting	-13044
▁Simpson	-13045
ologically	-13046
▁regardless	-13047
▁Wals	-13048
▁bore	-13049
▁schem	-13050
▁throw	-13051
▁underlying	-13052
▁Perth	-13053
▁50%	-13054
▁genera	-13055
▁preval	-13056
▁penet	-13057
▁Raf	-13058
▁dealing	-13059
▁statistical	-13060
plete	-13061
▁Bran	-13062
usters	-13063
▁gaining	-13064
▁numbered	-13065
ña	-13066
▁Porter	-13067
▁Hamburg	-13068
▁celebrate	-13069
▁WWE	-13070
▁enroll	-13071
September	-13072
rier	-13073
▁Hopkins	-13074
▁Fellows	-13075
▁1904	-13076
▁Caesar	-13077
▁reward	-13078
▁Laura	-13079
▁devast	-13080
▁looks	-13081
missions	-13082
bone	-13083
▁Andrews	-13084
▁Circuit	-13085
▁Pine	-13086
▁MD	-13087
▁33.	-13088
▁fifty	-13089
▁volunteers	-13090
▁Ach	-13091
▁timber	-13092
▁fatal	-13093
veloped	-13094
inned	-13095
fight	-13096
July	-13097
plane	-13098
atories	-13099
▁Marri	-13100
▁minim	-13101
▁Lithuania	-13102
actic	-13103
▁arguments	-13104
boys	-13105
▁Generation	-13106
ocaust	-13107
▁Edge	-13108
▁assign	-13109
▁prisoner	-13110
CAR	-13111
▁Block	-13112
▁ammunition	-13113
PR	-13114
▁absorbed	-13115
▁duration	-13116
▁afternoon	-13117
▁Hood	-13118
▁silent	-13119
▁temples	-13120
▁theoretical	-13121
ridor	-13122
▁Hunting	-13123
omatic	-13124
▁binding	-13125
▁attitude	-13126
▁MHz	-13127
▁amph	-13128
lore	-13129
▁165	-13130
▁imposed	-13131
▁identification	-13132
days	-13133
▁seized	-13134
▁Hes	-13135
▁1974.	-13136
▁nose	-13137
anti	-13138
▁scr	-13139
pes	-13140
join	-13141
▁MLB	-13142
appa	-13143
▁Grande	-13144
▁ITV	-13145
▁1945.	-13146
▁libraries	-13147
▁Artist	-13148
▁crashed	-13149
October	-13150
▁Canyon	-13151
▁Mam	-13152
▁helicopter	-13153
itely	-13154
▁Cav	-13155
▁allegations	-13156
▁veteran	-13157
3/	-13158
▁expanding	-13159
▁1978.	-13160
▁Currently	-13161
parent	-13162
▁layers	-13163
ynom	-13164
▁trim	-13165
▁civilians	-13166
▁Mé	-13167
▁Dim	-13168
▁1970.	-13169
▁adopt	-13170
▁Canterbury	-13171
tym	-13172
▁gif	-13173
▁Cann	-13174
▁Challenge	-13175
▁substance	-13176
aning	-13177
▁quoted	-13178
VA	-13179
▁Dame	-13180
idance	-13181
▁Theodore	-13182
▁Miguel	-13183
ente	-13184
regular	-13185
▁ISO	-13186
illon	-13187
▁presentation	-13188
▁ferry	-13189
▁flank	-13190
hibition	-13191
▁feelings	-13192
▁Gö	-13193
▁Nixon	-13194
▁Herald	-13195
ete	-13196
▁assert	-13197
ablo	-13198
▁Recording	-13199
▁nobility	-13200
▁overlo	-13201
bery	-13202
April	-13203
▁Nigeria	-13204
▁opposing	-13205
quin	-13206
cap	-13207
▁graphic	-13208
▁hunt	-13209
▁dish	-13210
▁1981.	-13211
▁surprise	-13212
vironments	-13213
▁utility	-13214
▁Liu	-13215
▁Glenn	-13216
▁forty	-13217
▁eligible	-13218
▁(1994)	-13219
▁Ced	-13220
▁Sons	-13221
▁breaks	-13222
▁refugees	-13223
onation	-13224
▁upgraded	-13225
GS	-13226
gov	-13227
▁Miles	-13228
▁Scots	-13229
▁employee	-13230
▁explosion	-13231
▁Break	-13232
▁Arms	-13233
▁(2011)	-13234
▁confidence	-13235
▁recipients	-13236
▁synthesis	-13237
▁Institution	-13238
▁Terminal	-13239
▁0.3	-13240
▁assembled	-13241
ytic	-13242
▁colleagues	-13243
stable	-13244
hurst	-13245
makers	-13246
▁equally	-13247
▁adoption	-13248
▁1976.	-13249
▁Benedict	-13250
orum	-13251
▁Solomon	-13252
etra	-13253
South	-13254
▁actively	-13255
▁compiled	-13256
▁Come	-13257
▁vowel	-13258
icz	-13259
▁autumn	-13260
▁acquire	-13261
▁Eugene	-13262
▁140	-13263
▁kinds	-13264
rh	-13265
▁disbanded	-13266
ellar	-13267
▁Concert	-13268
▁cann	-13269
Christ	-13270
ischer	-13271
▁crypt	-13272
▁61	-13273
▁vital	-13274
orrect	-13275
dem	-13276
senal	-13277
▁artif	-13278
▁suspected	-13279
▁Aboriginal	-13280
▁Cord	-13281
itative	-13282
▁tourists	-13283
▁filter	-13284
▁Louise	-13285
-12	-13286
▁Diocese	-13287
ahan	-13288
umph	-13289
▁Mahar	-13290
▁terrain	-13291
estrian	-13292
▁5-	-13293
ango	-13294
▁Flash	-13295
▁Doll	-13296
▁hospitals	-13297
▁Burton	-13298
▁Cyprus	-13299
iao	-13300
▁fastest	-13301
▁François	-13302
asp	-13303
▁Kiss	-13304
▁DS	-13305
▁Nottingham	-13306
IF	-13307
▁Weather	-13308
▁batting	-13309
▁opens	-13310
▁CH	-13311
▁cryst	-13312
story	-13313
▁Ellis	-13314
▁Academic	-13315
human	-13316
▁drafted	-13317
▁Baldwin	-13318
▁Comb	-13319
▁sheet	-13320
▁Underground	-13321
USA	-13322
▁server	-13323
bian	-13324
▁entreprene	-13325
▁occurring	-13326
▁criticised	-13327
▁tun	-13328
▁Merit	-13329
▁Piano	-13330
▁Critics	-13331
▁bearing	-13332
▁colours	-13333
▁Celeb	-13334
▁Sebast	-13335
▁mechanics	-13336
▁Aw	-13337
▁circular	-13338
▁playwright	-13339
▁1948,	-13340
kan	-13341
▁moon	-13342
prises	-13343
▁63	-13344
bai	-13345
▁1975.	-13346
▁peninsula	-13347
▁emigrants	-13348
▁breast	-13349
▁sacred	-13350
blem	-13351
▁prayer	-13352
▁estimates	-13353
▁dimension	-13354
▁Belf	-13355
uckland	-13356
▁farms	-13357
▁burning	-13358
▁naturally	-13359
UN	-13360
▁Heavyweight	-13361
atever	-13362
aiden	-13363
▁faction	-13364
▁shots	-13365
▁cameras	-13366
▁Apart	-13367
agar	-13368
▁perpet	-13369
▁solely	-13370
▁Chemical	-13371
▁cens	-13372
▁FBI	-13373
▁Surrey	-13374
▁widow	-13375
▁photographer	-13376
▁torpedo	-13377
▁stones	-13378
▁automatically	-13379
▁Richardson	-13380
▁ministry	-13381
▁bacteria	-13382
▁comprising	-13383
▁centered	-13384
▁100,000	-13385
oux	-13386
umm	-13387
▁Constantinople	-13388
woman	-13389
.).	-13390
▁1958,	-13391
uxiliary	-13392
▁advocate	-13393
ymph	-13394
▁Lancaster	-13395
▁62	-13396
▁lineup	-13397
although	-13398
▁1903	-13399
▁1947,	-13400
quet	-13401
▁59	-13402
▁ic	-13403
▁shock	-13404
▁101	-13405
▁1959,	-13406
direct	-13407
▁Arctic	-13408
▁estimate	-13409
▁manufacture	-13410
▁Jung	-13411
▁posts	-13412
avier	-13413
▁Expedition	-13414
▁Aur	-13415
▁Blake	-13416
▁dimin	-13417
▁Cros	-13418
▁Chi	-13419
▁Lif	-13420
▁Malta	-13421
▁Cu	-13422
▁Text	-13423
▁bassist	-13424
never	-13425
▁autobiography	-13426
▁1,0	-13427
ilogy	-13428
▁disagre	-13429
▁Cardinals	-13430
▁Etym	-13431
▁customer	-13432
▁pin	-13433
▁pale	-13434
▁Colonial	-13435
▁Contin	-13436
▁bapt	-13437
▁85	-13438
▁Nas	-13439
pot	-13440
gary	-13441
▁reserves	-13442
▁ambassador	-13443
▁speeds	-13444
▁700	-13445
December	-13446
▁Hod	-13447
oline	-13448
▁Fant	-13449
▁Artillery	-13450
▁engagement	-13451
canic	-13452
may	-13453
etheless	-13454
▁Lak	-13455
▁Veter	-13456
▁sporting	-13457
▁distant	-13458
▁Kingston	-13459
▁Access	-13460
▁criteria	-13461
▁Reagan	-13462
▁Bohem	-13463
▁genes	-13464
▁formations	-13465
▁deposits	-13466
▁Episode	-13467
umps	-13468
ctuary	-13469
▁1971.	-13470
▁proposals	-13471
▁Engineers	-13472
▁measurement	-13473
insky	-13474
▁Salvador	-13475
▁Sene	-13476
▁1956,	-13477
▁Basin	-13478
▁towers	-13479
▁1.5	-13480
▁Indo	-13481
▁focusing	-13482
World	-13483
▁enhance	-13484
Co	-13485
alks	-13486
cover	-13487
▁grain	-13488
▁Geneva	-13489
▁philosophers	-13490
▁sor	-13491
rament	-13492
LS	-13493
▁survivors	-13494
▁Alexandria	-13495
oj	-13496
▁Bever	-13497
chel	-13498
▁tenth	-13499
▁reluct	-13500
▁disappeared	-13501
▁Combat	-13502
▁contested	-13503
▁protagonist	-13504
neum	-13505
Cent	-13506
ceased	-13507
▁Birth	-13508
▁Depression	-13509
▁Animal	-13510
▁Calgary	-13511
▁Meet	-13512
▁Railways	-13513
▁Overall	-13514
▁Discovery	-13515
▁coaching	-13516
née	-13517
▁wasn	-13518
▁Crystal	-13519
▁interesting	-13520
▁editors	-13521
▁wickets	-13522
▁12-	-13523
▁indirect	-13524
▁listen	-13525
ewise	-13526
▁Wagner	-13527
▁prompted	-13528
tor	-13529
mail	-13530
▁XI	-13531
▁Sul	-13532
building	-13533
rators	-13534
▁0.2	-13535
PP	-13536
▁Aub	-13537
▁Ober	-13538
andin	-13539
▁disestablish	-13540
▁horizontal	-13541
▁dramat	-13542
▁encourage	-13543
ashire	-13544
▁founders	-13545
▁(1993)	-13546
OM	-13547
asma	-13548
ovan	-13549
▁findings	-13550
▁Edgar	-13551
▁unw	-13552
▁Suff	-13553
dist	-13554
▁Cred	-13555
▁Palestinian	-13556
irie	-13557
▁socialist	-13558
▁jew	-13559
▁1968.	-13560
▁Pain	-13561
▁dynamic	-13562
▁Maritime	-13563
▁Qing	-13564
▁1946,	-13565
▁manifest	-13566
▁striking	-13567
▁cock	-13568
▁Corp	-13569
EG	-13570
▁creator	-13571
▁exhaust	-13572
colm	-13573
lane	-13574
eme	-13575
grim	-13576
▁hull	-13577
▁citizenship	-13578
▁participating	-13579
oids	-13580
▁1950,	-13581
▁Carroll	-13582
▁renowned	-13583
▁orange	-13584
▁Indigenous	-13585
▁deeply	-13586
▁fisher	-13587
empor	-13588
ovsky	-13589
▁Roads	-13590
▁antib	-13591
▁Newfoundland	-13592
▁95	-13593
▁Ferg	-13594
▁ESP	-13595
▁victories	-13596
▁enrolled	-13597
▁Lodge	-13598
▁Stri	-13599
ranger	-13600
produced	-13601
role	-13602
▁1969.	-13603
!,	-13604
▁Moreover	-13605
▁Ships	-13606
▁ghost	-13607
▁boards	-13608
▁Half	-13609
–189	-13610
▁Azer	-13611
▁Rican	-13612
▁sculptor	-13613
▁Punjab	-13614
▁Auckland	-13615
Brit	-13616
▁cant	-13617
▁1973.	-13618
▁commitment	-13619
clusive	-13620
▁Mk	-13621
▁consort	-13622
uke	-13623
▁Forum	-13624
▁Index	-13625
▁Plymouth	-13626
Hung	-13627
inguished	-13628
▁76	-13629
five	-13630
▁mans	-13631
▁interactions	-13632
▁Norton	-13633
▁lesser	-13634
▁capabilities	-13635
▁Laz	-13636
▁laser	-13637
▁Mis	-13638
▁happy	-13639
▁storyline	-13640
issa	-13641
▁trouble	-13642
istani	-13643
▁environments	-13644
atoes	-13645
acters	-13646
▁supporter	-13647
▁philosophical	-13648
▁Eye	-13649
▁jack	-13650
▁stabil	-13651
▁Articles	-13652
oyle	-13653
▁mutual	-13654
▁resear	-13655
▁thorough	-13656
▁Dud	-13657
ische	-13658
▁Giovanni	-13659
▁ear	-13660
▁enable	-13661
▁consensus	-13662
DI	-13663
bet	-13664
▁Zen	-13665
▁Fra	-13666
▁newsc	-13667
Jew	-13668
ipeg	-13669
▁sew	-13670
▁Being	-13671
▁Similar	-13672
▁happen	-13673
eric	-13674
▁philanthrop	-13675
ogg	-13676
athon	-13677
▁surrend	-13678
oyalty	-13679
▁expelled	-13680
arre	-13681
▁voices	-13682
▁immun	-13683
▁Luxemb	-13684
▁nearest	-13685
▁Sed	-13686
▁Source	-13687
▁zones	-13688
▁Hack	-13689
▁legally	-13690
alties	-13691
stock	-13692
▁Kenya	-13693
▁Fraser	-13694
▁butter	-13695
▁Lancashire	-13696
ardi	-13697
▁gymn	-13698
criptions	-13699
MT	-13700
▁MB	-13701
▁Obl	-13702
imental	-13703
▁Word	-13704
urated	-13705
▁firms	-13706
imony	-13707
rish	-13708
etti	-13709
imity	-13710
▁decides	-13711
▁Sportspeople	-13712
▁stolen	-13713
▁counsel	-13714
unciation	-13715
▁Chase	-13716
▁CIA	-13717
▁Recre	-13718
▁Belarus	-13719
ensing	-13720
awk	-13721
▁drives	-13722
▁CR	-13723
iox	-13724
oan	-13725
▁nicknamed	-13726
▁cricketer	-13727
▁Ide	-13728
▁errors	-13729
▁remix	-13730
▁Murder	-13731
▁Orland	-13732
▁Gamb	-13733
▁polynom	-13734
▁Gospel	-13735
lia	-13736
escope	-13737
▁releasing	-13738
▁kills	-13739
▁flagship	-13740
▁conce	-13741
seat	-13742
▁worker	-13743
Best	-13744
▁intensity	-13745
▁Hugo	-13746
▁Indonesian	-13747
▁Ming	-13748
▁Canton	-13749
▁Clement	-13750
cos	-13751
▁qualify	-13752
Te	-13753
▁1957,	-13754
▁relatives	-13755
uchi	-13756
▁unclear	-13757
▁Cos	-13758
▁RP	-13759
▁intellig	-13760
▁Babyl	-13761
▁Eagles	-13762
▁87	-13763
▁genres	-13764
European	-13765
▁psychiat	-13766
▁accomplished	-13767
▁Mine	-13768
▁absent	-13769
▁Universities	-13770
▁transported	-13771
▁Ludwig	-13772
▁tradem	-13773
▁Morrison	-13774
▁Stockholm	-13775
▁consequences	-13776
▁volunt	-13777
▁Bronze	-13778
▁Lap	-13779
▁commercially	-13780
▁unve	-13781
▁Holocaust	-13782
är	-13783
▁conquered	-13784
▁Peak	-13785
ifferent	-13786
▁spell	-13787
▁suburban	-13788
▁bonds	-13789
▁announcement	-13790
▁doubles	-13791
▁directions	-13792
▁1977.	-13793
▁Adrian	-13794
▁beneath	-13795
▁councill	-13796
▁aggressive	-13797
▁171	-13798
▁Agreement	-13799
▁bankruptcy	-13800
▁arrives	-13801
▁Doug	-13802
just	-13803
▁Mold	-13804
bek	-13805
record	-13806
▁).	-13807
agne	-13808
▁Wesley	-13809
▁Chrys	-13810
▁Reynolds	-13811
▁interact	-13812
▁Presbyterian	-13813
hend	-13814
▁poorly	-13815
▁advertis	-13816
▁Burns	-13817
▁summary	-13818
antom	-13819
▁Cel	-13820
cin	-13821
▁(2012)	-13822
leyball	-13823
▁associations	-13824
▁abstract	-13825
▁Take	-13826
▁Ambassador	-13827
▁shaped	-13828
▁Prague	-13829
▁Bedford	-13830
sburg	-13831
▁coe	-13832
▁Chuck	-13833
▁judicial	-13834
▁Ki	-13835
angered	-13836
▁Balk	-13837
▁corporation	-13838
▁defending	-13839
riculum	-13840
800	-13841
argest	-13842
▁discrimination	-13843
aru	-13844
▁Monroe	-13845
▁Scholars	-13846
▁harmon	-13847
▁achievement	-13848
▁disputed	-13849
▁Reds	-13850
▁destroyer	-13851
▁carb	-13852
▁(14	-13853
edo	-13854
fol	-13855
▁Malcolm	-13856
▁na	-13857
▁vin	-13858
▁Bryan	-13859
▁grammar	-13860
▁Winners	-13861
fortun	-13862
▁width	-13863
▁navigation	-13864
▁163	-13865
▁Pom	-13866
ochem	-13867
▁overwhel	-13868
ém	-13869
▁tributary	-13870
▁rings	-13871
▁Twenty	-13872
▁inland	-13873
▁clay	-13874
▁Grammar	-13875
▁strikes	-13876
itory	-13877
There	-13878
▁Large	-13879
▁chapters	-13880
▁formats	-13881
▁tactics	-13882
▁screenwriter	-13883
▁Memphis	-13884
▁mechanisms	-13885
▁SN	-13886
▁accuracy	-13887
▁athletic	-13888
▁assessment	-13889
▁0.5	-13890
▁Plaza	-13891
▁Crisis	-13892
▁legendary	-13893
En	-13894
clair	-13895
▁Leslie	-13896
ussels	-13897
▁Marshal	-13898
▁Linda	-13899
▁1902	-13900
▁cere	-13901
▁epic	-13902
▁topic	-13903
Austral	-13904
inas	-13905
oko	-13906
offs	-13907
▁Pale	-13908
▁aest	-13909
▁Month	-13910
sterious	-13911
Black	-13912
▁submarines	-13913
▁differential	-13914
▁Sherman	-13915
▁flown	-13916
▁shoulder	-13917
▁estates	-13918
▁Tampa	-13919
▁Kor	-13920
▁Julia	-13921
▁arose	-13922
▁Cinema	-13923
OP	-13924
▁Moses	-13925
▁Dow	-13926
▁Wis	-13927
▁inventor	-13928
▁AB	-13929
▁Lomb	-13930
▁exterior	-13931
assis	-13932
▁Aj	-13933
▁freed	-13934
ylan	-13935
▁Pon	-13936
▁spokes	-13937
▁Kem	-13938
▁suspic	-13939
▁paying	-13940
group	-13941
▁Characters	-13942
▁span	-13943
istence	-13944
▁tournaments	-13945
iago	-13946
▁Lucy	-13947
She	-13948
▁contributing	-13949
▁raw	-13950
▁sheep	-13951
▁Presidents	-13952
fold	-13953
▁customs	-13954
▁Pars	-13955
▁spelling	-13956
dig	-13957
uj	-13958
▁69	-13959
walk	-13960
▁manuscripts	-13961
aceae	-13962
IDS	-13963
▁suspect	-13964
▁renewed	-13965
▁breath	-13966
▁swing	-13967
▁MC	-13968
▁Release	-13969
▁Body	-13970
▁AN	-13971
warf	-13972
▁Airways	-13973
▁terminology	-13974
▁bombs	-13975
Russ	-13976
▁que	-13977
▁mask	-13978
▁bullet	-13979
▁Morocco	-13980
▁dancing	-13981
▁welfare	-13982
emann	-13983
▁Athen	-13984
▁CF	-13985
▁Augustus	-13986
strument	-13987
▁boost	-13988
▁Robertson	-13989
▁physicist	-13990
▁Estate	-13991
▁hamlet	-13992
shore	-13993
market	-13994
▁(1992)	-13995
▁Winnipeg	-13996
▁Bradley	-13997
span	-13998
▁hung	-13999
apest	-14000
▁withdrawal	-14001
French	-14002
▁membrane	-14003
▁Marl	-14004
▁withdrawn	-14005
▁generals	-14006
card	-14007
▁Ost	-14008
▁Concerto	-14009
▁Mob	-14010
▁politically	-14011
OW	-14012
ampire	-14013
communications	-14014
▁Holl	-14015
▁consciousness	-14016
▁99	-14017
▁eating	-14018
▁explicitly	-14019
restrial	-14020
▁Terror	-14021
▁Liberation	-14022
▁Piet	-14023
▁brigade	-14024
GN	-14025
▁Nepal	-14026
▁Curtis	-14027
▁removing	-14028
▁owns	-14029
itated	-14030
▁executives	-14031
inda	-14032
▁humanity	-14033
ferred	-14034
▁Physical	-14035
▁YouT	-14036
iott	-14037
mant	-14038
▁arist	-14039
▁planes	-14040
▁Observatory	-14041
screen	-14042
▁Impact	-14043
▁dancer	-14044
▁Wend	-14045
▁flooding	-14046
ittees	-14047
▁passion	-14048
inf	-14049
atem	-14050
▁(1)	-14051
▁Etymology	-14052
inos	-14053
▁Vat	-14054
▁Chess	-14055
founder	-14056
▁NC	-14057
▁34.	-14058
▁prohibited	-14059
▁separately	-14060
▁Claude	-14061
▁consent	-14062
▁proclaimed	-14063
monton	-14064
▁Burke	-14065
ingle	-14066
▁tale	-14067
ilda	-14068
▁trig	-14069
▁35.	-14070
▁1840	-14071
▁10%	-14072
▁nationally	-14073
▁calculated	-14074
▁praise	-14075
▁pig	-14076
techn	-14077
▁Marion	-14078
▁GP	-14079
▁ingred	-14080
oves	-14081
▁Surv	-14082
imon	-14083
▁Sang	-14084
▁Dob	-14085
iking	-14086
apa	-14087
chief	-14088
▁Zimb	-14089
manuel	-14090
▁Wick	-14091
▁boxing	-14092
▁runway	-14093
▁discipline	-14094
▁fate	-14095
▁fran	-14096
▁NA	-14097
▁atomic	-14098
▁pursued	-14099
lic	-14100
▁rebels	-14101
istle	-14102
▁Preston	-14103
▁conducting	-14104
▁155	-14105
chard	-14106
▁handed	-14107
▁holes	-14108
asse	-14109
▁1967.	-14110
▁adequ	-14111
▁insects	-14112
▁revolt	-14113
▁proximity	-14114
forms	-14115
▁contrad	-14116
▁constantly	-14117
green	-14118
▁Fergus	-14119
▁Wyoming	-14120
▁investigate	-14121
▁10-	-14122
▁recurring	-14123
▁entities	-14124
))	-14125
▁Tow	-14126
▁defines	-14127
▁Rabbi	-14128
▁Kol	-14129
▁98.	-14130
▁sensitive	-14131
orms	-14132
▁diplomat	-14133
▁privately	-14134
▁(2)	-14135
▁1830	-14136
species	-14137
▁troubl	-14138
▁(12	-14139
▁Table	-14140
▁Pod	-14141
▁1955,	-14142
usually	-14143
▁Provincial	-14144
▁Mā	-14145
▁Amazon	-14146
▁Churches	-14147
▁physically	-14148
▁Document	-14149
▁Hors	-14150
▁Rocky	-14151
Sw	-14152
▁sizes	-14153
iya	-14154
▁1896	-14155
▁developers	-14156
▁Origins	-14157
▁Dew	-14158
▁org	-14159
▁bats	-14160
▁Manila	-14161
▁Gaz	-14162
▁Orlando	-14163
▁protocol	-14164
▁Easter	-14165
▁Filipino	-14166
▁collapsed	-14167
▁Evolution	-14168
DE	-14169
▁outcome	-14170
▁backed	-14171
▁2.0	-14172
▁antiqu	-14173
osc	-14174
▁Jak	-14175
▁Sou	-14176
▁wait	-14177
▁mirror	-14178
▁Henderson	-14179
▁exploration	-14180
▁169	-14181
arium	-14182
▁tong	-14183
▁Commod	-14184
▁Cly	-14185
▁thirteen	-14186
UP	-14187
▁persec	-14188
▁derives	-14189
▁Saw	-14190
inum	-14191
▁Adolf	-14192
▁Convers	-14193
▁fees	-14194
▁Ign	-14195
–188	-14196
▁Rhine	-14197
ding	-14198
rill	-14199
▁botan	-14200
ilion	-14201
onde	-14202
▁evident	-14203
▁homosexual	-14204
▁navy	-14205
▁sportspeople	-14206
▁fru	-14207
▁Given	-14208
▁circles	-14209
▁decay	-14210
omers	-14211
esian	-14212
▁Clear	-14213
▁173	-14214
▁Albany	-14215
last	-14216
▁senators	-14217
this	-14218
icking	-14219
▁enorm	-14220
ensen	-14221
▁stere	-14222
family	-14223
ficial	-14224
▁1949,	-14225
▁Paper	-14226
▁constituencies	-14227
▁Amy	-14228
▁Myth	-14229
▁introduce	-14230
▁deals	-14231
▁divine	-14232
▁overth	-14233
ountain	-14234
▁Newman	-14235
▁leng	-14236
ulates	-14237
yson	-14238
▁insisted	-14239
November	-14240
▁thriller	-14241
print	-14242
▁Tat	-14243
▁imprisonment	-14244
▁Congo	-14245
agonal	-14246
ordinary	-14247
▁Azerbai	-14248
▁registration	-14249
gent	-14250
▁Resources	-14251
▁militia	-14252
▁railways	-14253
▁smallest	-14254
▁Version	-14255
▁ruins	-14256
inders	-14257
▁Bend	-14258
▁Edwin	-14259
▁choir	-14260
▁Mater	-14261
Ital	-14262
▁"...	-14263
▁supp	-14264
▁improving	-14265
▁Duchy	-14266
▁southeastern	-14267
▁Bil	-14268
▁Troy	-14269
▁Carne	-14270
yon	-14271
▁confirm	-14272
olithic	-14273
chem	-14274
ategory	-14275
▁Powers	-14276
acular	-14277
▁por	-14278
▁Guards	-14279
▁Genesis	-14280
▁newer	-14281
sim	-14282
–187	-14283
▁biology	-14284
▁settings	-14285
▁marketed	-14286
▁preservation	-14287
anium	-14288
marine	-14289
▁marking	-14290
abwe	-14291
▁aftermath	-14292
▁copyright	-14293
amped	-14294
▁Dayton	-14295
arts	-14296
▁Activ	-14297
▁nationwide	-14298
likely	-14299
▁Level	-14300
▁digit	-14301
▁Speaker	-14302
anskrit	-14303
To	-14304
▁travelling	-14305
▁Colony	-14306
2:	-14307
▁Saturn	-14308
▁Harbour	-14309
▁bits	-14310
▁Process	-14311
▁conspiracy	-14312
▁threats	-14313
▁Chev	-14314
▁remn	-14315
essa	-14316
beat	-14317
▁Money	-14318
▁Baltic	-14319
▁Interior	-14320
▁bones	-14321
▁invaded	-14322
▁Hull	-14323
▁1954,	-14324
▁cylinder	-14325
▁MacD	-14326
▁noting	-14327
▁stretch	-14328
▁gam	-14329
▁binary	-14330
▁Learning	-14331
isive	-14332
▁125	-14333
▁sailing	-14334
abul	-14335
▁Account	-14336
iggs	-14337
▁odd	-14338
▁97	-14339
▁Pradesh	-14340
▁complexity	-14341
▁Factory	-14342
▁Cohen	-14343
orge	-14344
▁translations	-14345
production	-14346
▁agreements	-14347
▁Besides	-14348
▁incumbent	-14349
▁reveal	-14350
three	-14351
▁guidance	-14352
Com	-14353
ignty	-14354
▁Chad	-14355
▁Stafford	-14356
▁skull	-14357
▁Edmonton	-14358
▁Search	-14359
▁Analysis	-14360
Brien	-14361
osure	-14362
▁Dund	-14363
▁Dorothy	-14364
▁Wake	-14365
▁1918,	-14366
▁northeastern	-14367
▁gravity	-14368
▁Lar	-14369
elong	-14370
▁Flora	-14371
▁gates	-14372
▁tribal	-14373
ahu	-14374
▁RCA	-14375
▁advocated	-14376
placement	-14377
▁Rid	-14378
ayette	-14379
▁guarant	-14380
otypes	-14381
▁dying	-14382
▁targeted	-14383
▁impressed	-14384
sal	-14385
▁marri	-14386
▁1953,	-14387
▁weigh	-14388
▁sou	-14389
▁Cool	-14390
Pl	-14391
▁Hul	-14392
▁panels	-14393
▁experts	-14394
osystem	-14395
▁Fur	-14396
▁Chelsea	-14397
London	-14398
ilib	-14399
▁vit	-14400
▁Distinguished	-14401
83	-14402
▁Blair	-14403
▁Por	-14404
▁Scandin	-14405
▁reconstruction	-14406
▁upris	-14407
ettes	-14408
▁74	-14409
▁gly	-14410
▁thrown	-14411
▁compensation	-14412
▁stationed	-14413
▁Achievement	-14414
▁achievements	-14415
▁Buc	-14416
▁lobby	-14417
▁Stalin	-14418
▁mature	-14419
▁volcano	-14420
▁proven	-14421
▁inscription	-14422
arity	-14423
▁religions	-14424
▁Mathematics	-14425
▁emerging	-14426
▁item	-14427
uh	-14428
▁threw	-14429
▁inches	-14430
▁Madonna	-14431
▁(2013)	-14432
▁concurrent	-14433
▁monks	-14434
▁tram	-14435
▁Ana	-14436
mel	-14437
▁raids	-14438
affe	-14439
▁Manor	-14440
▁defic	-14441
▁tables	-14442
▁1898	-14443
▁Shen	-14444
kinson	-14445
▁saint	-14446
▁consistently	-14447
▁heter	-14448
oning	-14449
▁accus	-14450
▁destroyers	-14451
bank	-14452
enzie	-14453
▁Ng	-14454
▁Strong	-14455
ithms	-14456
▁Veh	-14457
▁(1991)	-14458
ados	-14459
▁staged	-14460
5/	-14461
▁Richards	-14462
▁satir	-14463
▁inclusion	-14464
▁pupils	-14465
▁Middles	-14466
▁Individual	-14467
▁acceptance	-14468
▁Rochester	-14469
quartered	-14470
▁organisms	-14471
arten	-14472
▁considers	-14473
▁Gy	-14474
▁orientation	-14475
▁suddenly	-14476
▁Mail	-14477
habilit	-14478
apor	-14479
▁nineteenth	-14480
▁Reid	-14481
rone	-14482
urities	-14483
▁Shield	-14484
▁fiber	-14485
▁Drum	-14486
established	-14487
▁Pam	-14488
▁uncon	-14489
▁publish	-14490
▁grants	-14491
▁sunk	-14492
▁Period	-14493
▁Rum	-14494
▁3,000	-14495
4/	-14496
▁Georgian	-14497
▁abolition	-14498
rians	-14499
▁sphere	-14500
▁computing	-14501
UC	-14502
Roman	-14503
list	-14504
▁predict	-14505
entry	-14506
▁Profile	-14507
▁quantity	-14508
cz	-14509
When	-14510
▁massacre	-14511
since	-14512
▁resur	-14513
▁jail	-14514
▁Devon	-14515
▁reconc	-14516
▁1965.	-14517
▁conceived	-14518
lass	-14519
▁Bailey	-14520
isle	-14521
enhagen	-14522
▁fusion	-14523
▁mammals	-14524
▁Gem	-14525
party	-14526
uta	-14527
▁Hoff	-14528
▁bure	-14529
▁wake	-14530
▁wound	-14531
▁finger	-14532
▁Zhang	-14533
▁planets	-14534
▁RT	-14535
].	-14536
▁banking	-14537
▁doctors	-14538
▁aims	-14539
inks	-14540
▁Cave	-14541
rah	-14542
▁imported	-14543
pop	-14544
▁obvious	-14545
▁capability	-14546
ections	-14547
DT	-14548
grand	-14549
▁Change	-14550
▁1966.	-14551
▁crucial	-14552
▁IN	-14553
aternity	-14554
▁automobile	-14555
FS	-14556
▁bench	-14557
liminary	-14558
▁Santiago	-14559
▁Chronicle	-14560
▁Gaul	-14561
fields	-14562
▁Dy	-14563
▁Medic	-14564
ithe	-14565
▁Johnston	-14566
▁Singer	-14567
lla	-14568
roat	-14569
▁Monument	-14570
▁geographical	-14571
▁Prussian	-14572
▁Qur	-14573
▁Calvin	-14574
▁Alternative	-14575
▁predicted	-14576
eps	-14577
▁developer	-14578
▁Truth	-14579
▁Sloven	-14580
▁murders	-14581
▁reserved	-14582
▁fires	-14583
▁Gustav	-14584
▁Dawn	-14585
▁intens	-14586
▁Pall	-14587
reens	-14588
▁Mick	-14589
ienne	-14590
▁Overview	-14591
▁Tech	-14592
▁foods	-14593
▁investors	-14594
▁Morm	-14595
▁Tunis	-14596
immer	-14597
▁blog	-14598
ournals	-14599
▁YouTube	-14600
▁1895	-14601
iscal	-14602
▁voyage	-14603
▁condemned	-14604
▁leather	-14605
▁accordance	-14606
▁superhero	-14607
▁transmitter	-14608
member	-14609
▁complicated	-14610
▁Carey	-14611
▁Resp	-14612
▁reads	-14613
▁trigg	-14614
▁Plains	-14615
▁recreational	-14616
▁Dere	-14617
▁invention	-14618
▁neur	-14619
▁71	-14620
▁lad	-14621
▁USSR	-14622
▁brings	-14623
ilee	-14624
▁obst	-14625
▁Zimbabwe	-14626
▁Lines	-14627
clesiast	-14628
▁1899	-14629
▁Loren	-14630
▁Brussels	-14631
▁Crom	-14632
amy	-14633
GC	-14634
▁Diana	-14635
▁practiced	-14636
▁Rac	-14637
:1	-14638
▁auction	-14639
▁Fernando	-14640
▁Sicily	-14641
▁tension	-14642
▁trick	-14643
anguages	-14644
▁streams	-14645
▁rolling	-14646
▁edges	-14647
▁proceeded	-14648
▁lanes	-14649
▁editorial	-14650
▁97.	-14651
▁Ranking	-14652
link	-14653
▁joins	-14654
RE	-14655
▁(1990)	-14656
▁Charts	-14657
▁balls	-14658
cu	-14659
▁humor	-14660
▁harbour	-14661
▁trails	-14662
▁Nikol	-14663
▁arguing	-14664
▁Him	-14665
▁Cavalry	-14666
-21	-14667
asis	-14668
onaut	-14669
▁substitute	-14670
city	-14671
▁Chin	-14672
▁Lynn	-14673
▁Hut	-14674
▁indoor	-14675
▁united	-14676
▁Rup	-14677
▁lens	-14678
▁Mongol	-14679
olin	-14680
▁tob	-14681
▁guards	-14682
▁termed	-14683
▁Hayes	-14684
cor	-14685
▁Portsmouth	-14686
▁Dylan	-14687
▁Mang	-14688
▁quantities	-14689
▁honours	-14690
▁nerve	-14691
▁Sister	-14692
▁$1.	-14693
clamation	-14694
▁>	-14695
▁vig	-14696
atham	-14697
▁reliable	-14698
▁Ferry	-14699
▁commune	-14700
▁taste	-14701
▁Heroes	-14702
▁certainly	-14703
ometer	-14704
ocolate	-14705
▁recreation	-14706
enary	-14707
▁Empress	-14708
▁McDonald	-14709
▁Auto	-14710
▁competitors	-14711
uzzle	-14712
▁Laws	-14713
agnetic	-14714
▁Ident	-14715
▁172	-14716
▁Poems	-14717
asted	-14718
MD	-14719
▁Ultimate	-14720
Music	-14721
▁anarch	-14722
▁marsh	-14723
▁Paramount	-14724
▁Riv	-14725
▁vacc	-14726
oya	-14727
▁Ibn	-14728
▁Paulo	-14729
usa	-14730
▁allied	-14731
▁consideration	-14732
▁modes	-14733
▁1964.	-14734
closed	-14735
▁mystery	-14736
▁Falk	-14737
este	-14738
mile	-14739
icester	-14740
▁bio	-14741
▁Character	-14742
▁Pand	-14743
abling	-14744
▁1938,	-14745
▁beings	-14746
urse	-14747
▁implies	-14748
▁preceding	-14749
▁missionary	-14750
loo	-14751
structed	-14752
▁landmark	-14753
pri	-14754
pert	-14755
founded	-14756
▁Introduction	-14757
▁Traditional	-14758
headed	-14759
▁Publishers	-14760
▁cub	-14761
▁vinyl	-14762
iday	-14763
▁orchest	-14764
▁millions	-14765
▁twentieth	-14766
adic	-14767
▁5,000	-14768
▁Minne	-14769
▁Ernst	-14770
▁lasting	-14771
▁Kw	-14772
horn	-14773
▁prospect	-14774
▁rivals	-14775
▁rivalry	-14776
▁continuously	-14777
▁McN	-14778
▁auto	-14779
▁Mystery	-14780
▁Tunnel	-14781
▁lectures	-14782
igrant	-14783
char	-14784
▁flav	-14785
▁yard	-14786
▁dozen	-14787
comes	-14788
▁Kids	-14789
▁lunar	-14790
▁Gott	-14791
▁crack	-14792
▁Num	-14793
▁valve	-14794
▁1952,	-14795
▁Criminal	-14796
▁enhanced	-14797
–12	-14798
occup	-14799
▁surpass	-14800
airy	-14801
▁garn	-14802
▁Ulster	-14803
▁Sometimes	-14804
▁Spl	-14805
▁Rah	-14806
▁mad	-14807
▁sid	-14808
▁Bord	-14809
▁pregnant	-14810
▁Kre	-14811
racks	-14812
▁Coalition	-14813
▁vegetation	-14814
▁undergo	-14815
aft	-14816
▁Dw	-14817
▁governors	-14818
▁Hawaiian	-14819
▁preventing	-14820
▁anat	-14821
▁ber	-14822
▁Ens	-14823
▁Estab	-14824
▁laure	-14825
▁fossil	-14826
▁Geoffrey	-14827
▁aerial	-14828
▁hotels	-14829
sup	-14830
ipping	-14831
▁Justin	-14832
len	-14833
ods	-14834
▁Tennis	-14835
”.	-14836
ych	-14837
▁unity	-14838
▁Buddha	-14839
▁Strait	-14840
▁garrison	-14841
phant	-14842
▁Species	-14843
▁Ig	-14844
▁bounded	-14845
icals	-14846
▁Waters	-14847
▁Belfast	-14848
▁neighbourhood	-14849
▁Fast	-14850
▁Lav	-14851
ominated	-14852
▁Treasury	-14853
normal	-14854
▁(1989)	-14855
how	-14856
▁Constantine	-14857
oved	-14858
idelines	-14859
▁Mom	-14860
▁notation	-14861
jud	-14862
▁chorus	-14863
wid	-14864
▁console	-14865
▁promise	-14866
rust	-14867
▁unexpected	-14868
handed	-14869
iolet	-14870
lag	-14871
beck	-14872
thel	-14873
January	-14874
rovers	-14875
▁scar	-14876
iseries	-14877
author	-14878
▁companion	-14879
▁Moor	-14880
▁Fan	-14881
▁hitting	-14882
▁Yak	-14883
▁factories	-14884
ifax	-14885
ymes	-14886
▁discovers	-14887
▁Cosm	-14888
▁Quin	-14889
▁Success	-14890
haul	-14891
▁161	-14892
alis	-14893
▁Tru	-14894
▁barrier	-14895
▁Collect	-14896
uttle	-14897
▁prestigious	-14898
▁Draft	-14899
▁measurements	-14900
▁Rural	-14901
▁clients	-14902
uku	-14903
▁Letter	-14904
▁disputes	-14905
▁impression	-14906
▁Bea	-14907
▁Iv	-14908
▁singular	-14909
▁Caroline	-14910
▁detection	-14911
osity	-14912
▁Yard	-14913
▁Guatem	-14914
▁interven	-14915
▁architects	-14916
had	-14917
▁cabin	-14918
▁feeding	-14919
▁Potter	-14920
gang	-14921
number	-14922
▁Cock	-14923
...]	-14924
▁Volunte	-14925
▁Jennifer	-14926
idan	-14927
▁parameters	-14928
▁Pione	-14929
▁0.4	-14930
▁lying	-14931
▁ceremonies	-14932
▁dys	-14933
alions	-14934
channel	-14935
▁exercises	-14936
▁reunited	-14937
▁Eg	-14938
▁clothes	-14939
▁revenge	-14940
▁Cornell	-14941
▁Fo	-14942
▁Editor	-14943
▁thread	-14944
▁approxim	-14945
▁Emergency	-14946
RL	-14947
▁aside	-14948
▁Sacrament	-14949
▁wreck	-14950
▁ath	-14951
▁100.	-14952
▁Border	-14953
▁Tourist	-14954
▁perception	-14955
▁specialist	-14956
▁1885	-14957
▁Knox	-14958
mn	-14959
▁nights	-14960
ikes	-14961
▁Compos	-14962
oche	-14963
▁Elliott	-14964
▁paras	-14965
▁Coach	-14966
▁Novel	-14967
▁ESPN	-14968
[...]
